<unk>	0
<s>	0
</s>	0
▁	-1.9444
N	-2.6711
,	-3.07255
▁the	-3.26597
▁.	-3.70669
▁and	-4.02595
▁a	-4.1639
▁of	-4.16503
s	-4.35673
▁to	-4.36434
▁in	-4.49291
▁i	-4.57563
T	-5.03496
▁my	-5.21824
-	-5.23107
▁you	-5.23476
▁that	-5.24157
▁is	-5.25461
▁it	-5.2701
ed	-5.31322
▁with	-5.37285
▁on	-5.45246
ing	-5.46341
▁for	-5.50114
.	-5.61901
▁as	-5.65682
;	-5.72618
A	-5.72817
D	-5.72817
E	-5.72817
R	-5.72817
S	-5.72817
▁not	-5.74391
▁we	-5.76845
▁was	-5.79167
▁his	-5.79443
▁from	-5.80792
▁he	-5.81191
▁me	-5.84883
▁like	-5.87319
—	-5.88165
▁her	-5.89744
▁but	-5.91253
▁at	-5.92628
?	-5.9325
▁all	-5.94556
d	-5.97241
▁:	-5.98799
▁or	-5.99637
▁be	-5.99707
▁they	-6.00846
▁this	-6.01652
▁your	-6.05865
▁are	-6.06786
▁one	-6.13844
▁by	-6.16061
▁their	-6.18302
▁when	-6.19903
▁its	-6.20314
▁no	-6.22655
▁what	-6.23707
▁so	-6.24465
▁have	-6.27391
▁she	-6.28401
y	-6.34333
▁out	-6.37403
!	-6.3758
▁our	-6.38798
▁there	-6.40601
▁an	-6.42389
▁who	-6.46858
▁into	-6.47813
▁up	-6.48922
▁if	-6.5167
▁will	-6.53942
ly	-6.54008
▁where	-6.55028
▁can	-6.64216
▁were	-6.6506
“	-6.65778
▁them	-6.66692
▁then	-6.68438
”	-6.69264
▁now	-6.71871
▁how	-6.73406
▁us	-6.73502
▁had	-6.78138
▁down	-6.80826
▁love	-6.81885
▁through	-6.84922
▁him	-6.87761
▁do	-6.88229
▁would	-6.88912
▁which	-6.89069
▁back	-6.92353
▁over	-6.92356
▁know	-6.97909
▁more	-6.995
▁time	-6.99593
▁night	-7.01558
▁see	-7.02378
e	-7.03885
▁could	-7.04683
▁light	-7.08142
▁has	-7.10032
▁only	-7.10056
▁still	-7.1024
&	-7.10833
▁some	-7.11037
▁day	-7.12126
▁man	-7.12451
▁never	-7.14725
▁say	-7.15685
)	-7.16006
▁am	-7.17576
▁here	-7.1856
(	-7.19191
▁said	-7.1926
▁eyes	-7.20218
▁—	-7.20485
▁way	-7.22853
▁long	-7.23097
the	-7.23234
▁life	-7.2393
'	-7.25424
▁come	-7.25833
▁go	-7.26209
▁just	-7.26762
▁old	-7.27487
▁about	-7.28028
a	-7.28439
and	-7.29134
▁too	-7.2949
▁each	-7.29842
▁world	-7.32176
▁than	-7.32577
▁little	-7.33551
▁before	-7.35625
▁even	-7.36024
▁white	-7.36338
▁did	-7.38078
▁heart	-7.40395
▁other	-7.40996
▁water	-7.41138
▁after	-7.42512
▁black	-7.42533
▁away	-7.4323
▁again	-7.44116
▁let	-7.4555
▁been	-7.46953
▁two	-7.48067
i	-7.49005
▁face	-7.49872
▁those	-7.49967
▁hand	-7.50063
▁off	-7.504
▁make	-7.50487
▁dark	-7.50589
▁nothing	-7.51462
▁under	-7.51479
▁made	-7.51508
▁sun	-7.52032
▁these	-7.53519
▁own	-7.54137
▁every	-7.55197
▁air	-7.55276
▁first	-7.55426
▁last	-7.56029
in	-7.56508
▁dont	-7.57075
▁im	-7.57207
▁think	-7.57233
es	-7.57254
▁thy	-7.57971
▁god	-7.58998
▁once	-7.59439
▁while	-7.59865
▁yet	-7.60838
▁new	-7.61742
▁dead	-7.61745
▁body	-7.62064
▁though	-7.62929
▁must	-7.63367
▁good	-7.64661
▁look	-7.65181
▁wind	-7.65881
▁head	-7.67438
▁may	-7.68493
▁blue	-7.69469
▁hands	-7.69593
▁home	-7.69943
▁earth	-7.71308
▁sky	-7.71379
▁left	-7.71506
▁men	-7.71761
t	-7.72622
▁things	-7.7316
▁years	-7.73349
▁tell	-7.73609
▁because	-7.74073
`	-7.74116
er	-7.74644
▁something	-7.76123
▁sea	-7.76743
▁house	-7.76966
▁want	-7.77269
▁thought	-7.78397
▁well	-7.7931
▁death	-7.80136
▁take	-7.80407
▁get	-7.81656
▁without	-7.818
▁another	-7.82251
▁around	-7.82652
▁mother	-7.83719
▁green	-7.83803
▁always	-7.83935
▁shall	-7.84126
to	-7.84222
▁place	-7.84435
▁much	-7.85514
▁red	-7.88173
▁o	-7.88438
▁why	-7.88535
▁between	-7.88941
▁un	-7.8898
▁came	-7.89744
▁blood	-7.90603
▁thou	-7.91079
▁should	-7.91387
▁people	-7.91699
of	-7.91739
▁right	-7.92167
▁many	-7.92403
▁might	-7.92786
▁against	-7.92803
n	-7.92976
▁far	-7.9375
▁small	-7.94123
▁upon	-7.94139
▁great	-7.94549
▁hear	-7.95096
▁name	-7.95546
▁mind	-7.96157
▁whose	-7.96235
▁nor	-7.9638
▁such	-7.9639
▁end	-7.9659
▁trees	-7.98785
▁words	-7.99276
▁room	-8.00299
▁across	-8.00598
▁find	-8.00913
▁fire	-8.01016
▁rain	-8.01034
▁saw	-8.01226
▁sweet	-8.01547
▁open	-8.02348
▁ever	-8.03882
▁hair	-8.04187
▁inside	-8.04287
▁sleep	-8.04819
▁days	-8.05422
▁being	-8.05519
▁any	-8.05524
▁thing	-8.05844
▁`	-8.07253
▁father	-8.08053
▁moon	-8.08285
▁door	-8.08509
▁live	-8.0856
▁woman	-8.08893
▁gone	-8.09362
▁cold	-8.09365
▁behind	-8.09522
▁morning	-8.09556
▁eye	-8.10122
▁half	-8.11075
▁until	-8.11386
st	-8.11682
▁cant	-8.12425
▁give	-8.12733
▁lost	-8.12963
▁tree	-8.13459
▁past	-8.1381
on	-8.14211
▁does	-8.14359
▁says	-8.14563
▁hard	-8.14564
▁high	-8.14715
▁leaves	-8.14955
▁feel	-8.15116
▁same	-8.15669
▁keep	-8.16364
▁river	-8.16708
▁alone	-8.16804
ness	-8.17049
▁feet	-8.17638
▁...	-8.18072
▁children	-8.18935
▁above	-8.19438
▁mouth	-8.19663
▁voice	-8.19767
▁sound	-8.20189
▁bed	-8.20646
▁soul	-8.20765
▁knew	-8.21129
▁snow	-8.21333
▁turn	-8.21606
▁child	-8.22657
▁full	-8.22892
less	-8.2306
▁young	-8.23678
▁enough	-8.24022
r	-8.24047
▁dream	-8.24238
▁everything	-8.25068
▁remember	-8.25668
▁myself	-8.26089
est	-8.26132
▁word	-8.2672
▁window	-8.27623
▁deep	-8.28153
▁call	-8.28539
▁three	-8.28667
▁work	-8.29123
▁thee	-8.29268
▁city	-8.29657
▁put	-8.29707
▁die	-8.29971
▁kind	-8.30191
▁boy	-8.30402
▁song	-8.30881
▁among	-8.31509
▁found	-8.32534
▁got	-8.32574
▁went	-8.32835
▁along	-8.33081
▁ill	-8.33537
▁very	-8.34793
▁walk	-8.35264
▁summer	-8.35527
▁most	-8.3562
▁leave	-8.35693
▁toward	-8.35784
▁fall	-8.3617
o	-8.36612
▁skin	-8.37345
▁going	-8.37798
al	-8.3844
▁street	-8.38714
▁oh	-8.40545
▁glass	-8.40813
▁whole	-8.40835
▁need	-8.40999
▁next	-8.41064
▁grass	-8.41427
▁both	-8.41746
▁side	-8.41926
▁stars	-8.42297
▁didnt	-8.42855
▁bright	-8.4304
able	-8.43408
▁itself	-8.43709
▁hold	-8.43827
▁comes	-8.43852
▁seen	-8.44186
▁someone	-8.44703
▁fear	-8.44763
▁land	-8.44972
▁ground	-8.45003
▁heard	-8.45138
▁girl	-8.45774
▁near	-8.45853
▁breath	-8.46055
▁stone	-8.46462
▁ive	-8.46656
as	-8.46826
▁heaven	-8.46931
▁stand	-8.47028
▁read	-8.47228
▁dust	-8.47407
▁till	-8.48099
▁war	-8.48379
▁mine	-8.49152
▁lie	-8.49321
▁silence	-8.49448
▁took	-8.49875
▁sometimes	-8.49916
▁gold	-8.50014
▁mean	-8.51377
ies	-8.52028
▁arms	-8.52052
▁birds	-8.53587
▁set	-8.53622
▁close	-8.5379
▁true	-8.54123
▁flowers	-8.54246
▁line	-8.54255
▁beautiful	-8.54308
▁rest	-8.54481
▁beneath	-8.54673
us	-8.54754
▁else	-8.55071
▁music	-8.55711
▁wall	-8.55796
▁women	-8.56061
▁together	-8.56321
▁sing	-8.56443
▁called	-8.5665
▁watch	-8.56991
▁told	-8.57304
▁living	-8.57422
▁talk	-8.57822
▁few	-8.58004
▁part	-8.58147
▁wild	-8.58733
▁makes	-8.58771
▁spring	-8.58867
▁others	-8.59383
▁year	-8.59554
▁car	-8.59566
/	-8.59572
▁since	-8.59617
▁speak	-8.59702
▁free	-8.59773
▁stay	-8.59896
▁almost	-8.60211
▁broken	-8.60656
▁beyond	-8.60753
▁pain	-8.60806
▁soon	-8.60986
▁youre	-8.61107
▁yellow	-8.61266
that	-8.61533
▁friend	-8.61535
▁round	-8.62005
▁maybe	-8.62096
▁turned	-8.62203
▁bird	-8.62385
▁empty	-8.624
▁moment	-8.6303
▁looking	-8.63188
▁theres	-8.63481
▁soft	-8.63561
is	-8.63737
▁dreams	-8.64076
▁done	-8.64325
▁road	-8.64787
▁id	-8.64872
▁shadow	-8.65181
▁winter	-8.6535
but	-8.66282
▁dear	-8.66418
▁big	-8.66796
▁rose	-8.67408
▁clear	-8.67454
like	-8.67978
▁late	-8.68297
▁better	-8.6846
▁human	-8.68511
▁art	-8.6874
▁tongue	-8.68852
▁wings	-8.69147
▁waiting	-8.69833
▁coming	-8.6994
▁dog	-8.69991
▁self	-8.70012
▁cut	-8.70377
▁space	-8.70583
▁hope	-8.70636
▁flesh	-8.70746
▁touch	-8.70988
▁beauty	-8.71
▁fingers	-8.71246
▁book	-8.7188
▁outside	-8.72062
▁yes	-8.72073
▁ask	-8.72186
▁lips	-8.72266
▁memory	-8.72988
▁field	-8.73096
▁lay	-8.73217
▁also	-8.73685
▁slow	-8.73852
▁thats	-8.73979
▁held	-8.74127
▁best	-8.74133
▁born	-8.74276
▁fair	-8.74846
▁run	-8.74919
▁stop	-8.75053
it	-8.75542
▁within	-8.75886
▁hour	-8.75997
ers	-8.76024
▁floor	-8.76631
▁wanted	-8.76647
▁used	-8.76809
▁sit	-8.76954
▁star	-8.76998
▁loved	-8.77067
▁clouds	-8.77138
▁play	-8.7744
▁warm	-8.778
▁low	-8.78294
▁lives	-8.7881
▁brown	-8.79181
▁silver	-8.79226
▁knows	-8.79226
ce	-8.79249
▁stood	-8.79251
▁felt	-8.79443
▁later	-8.79664
▁town	-8.80081
▁beside	-8.80599
▁themselves	-8.8067
▁/	-8.80744
▁darkness	-8.8109
ll	-8.81402
▁real	-8.81586
▁table	-8.82152
with	-8.82284
▁poem	-8.83142
▁story	-8.83186
▁wife	-8.83233
▁anything	-8.83346
for	-8.83364
▁gave	-8.83509
▁joy	-8.83509
▁times	-8.83571
▁rock	-8.83701
▁strange	-8.83876
▁happy	-8.84258
▁died	-8.84471
▁fell	-8.84573
▁poor	-8.84578
▁goes	-8.84696
▁garden	-8.84913
▁hot	-8.85065
▁ice	-8.85097
▁smoke	-8.85262
▁eat	-8.85318
▁pass	-8.855
▁paper	-8.85834
▁grow	-8.86023
▁country	-8.86403
▁already	-8.86636
▁quiet	-8.86785
▁tears	-8.86809
▁sense	-8.86953
▁faces	-8.87115
▁care	-8.87147
▁friends	-8.87244
▁wood	-8.87328
▁perfect	-8.87358
▁believe	-8.87641
▁de	-8.87702
▁really	-8.87824
▁lord	-8.88162
▁cry	-8.88193
ve	-8.88379
▁sand	-8.88506
▁smell	-8.88758
▁ocean	-8.88953
or	-8.89148
▁four	-8.89383
▁bones	-8.8942
▁hours	-8.89639
▁hell	-8.89806
▁looked	-8.89922
▁fish	-8.89957
▁move	-8.90164
▁change	-8.90371
▁wont	-8.9058
▁evening	-8.91057
▁dry	-8.91437
▁fly	-8.91812
▁write	-8.91913
▁heat	-8.92098
▁whom	-8.92119
an	-8.92172
▁falling	-8.92219
▁gray	-8.92335
▁wet	-8.92647
▁bodies	-8.9266
▁become	-8.93175
▁power	-8.9319
▁legs	-8.93317
▁son	-8.93478
▁rise	-8.93484
▁bring	-8.93787
▁today	-8.94212
▁fields	-8.94312
ous	-8.94321
▁heavy	-8.94397
▁form	-8.9475
▁thin	-8.94762
▁shape	-8.94902
▁school	-8.94964
▁thousand	-8.9501
▁wait	-8.95102
▁truth	-8.95398
▁wrong	-8.95559
▁show	-8.9557
▁dance	-8.95682
▁spirit	-8.95964
▁having	-8.96019
▁color	-8.96217
▁himself	-8.97201
▁cloud	-8.97304
▁thinking	-8.97443
▁seems	-8.97812
▁shadows	-8.97822
▁wish	-8.98104
▁kept	-8.98139
▁break	-8.9837
▁use	-8.98732
▁making	-8.98981
you	-8.98989
▁sure	-8.99092
▁forget	-8.99601
▁girls	-8.99613
▁hill	-8.99623
▁sight	-8.99688
▁perhaps	-8.99699
▁teeth	-8.99944
▁pale	-9.00471
▁blind	-9.00798
▁below	-9.01264
▁walls	-9.01295
▁listen	-9.01329
▁mothers	-9.01386
▁baby	-9.0172
▁smile	-9.01875
▁longer	-9.019
▁flower	-9.01981
▁windows	-9.02265
▁sad	-9.02305
▁waves	-9.02398
▁matter	-9.02662
▁ago	-9.02703
▁bear	-9.02764
▁none	-9.02984
▁course	-9.03028
▁silent	-9.03094
up	-9.03096
he	-9.03517
▁meet	-9.03916
▁try	-9.03995
m	-9.04105
▁ear	-9.04209
▁bad	-9.0438
▁second	-9.04466
▁please	-9.04574
▁future	-9.04604
▁singing	-9.04606
▁ones	-9.04846
▁dawn	-9.04905
▁pink	-9.04988
▁horse	-9.05015
▁fast	-9.05183
▁asked	-9.05508
▁hearts	-9.06094
▁cool	-9.06119
▁dying	-9.0645
▁lies	-9.06454
▁thus	-9.06498
▁help	-9.06539
▁front	-9.0662
▁language	-9.0671
▁less	-9.06869
▁grave	-9.06942
▁sat	-9.06999
▁edge	-9.07422
▁desire	-9.07534
▁clean	-9.07814
▁alive	-9.08054
▁boys	-9.08092
▁brought	-9.08142
▁leaf	-9.08166
▁kiss	-9.08405
my	-9.08484
▁names	-9.08557
▁wake	-9.08897
▁peace	-9.08985
▁fine	-9.09015
▁loves	-9.09244
▁seemed	-9.09839
▁walking	-9.10022
▁lived	-9.10073
▁strong	-9.1012
▁doesnt	-9.10189
▁thoughts	-9.10687
▁follow	-9.10785
▁w	-9.10827
▁point	-9.10834
▁slowly	-9.10858
▁golden	-9.10858
▁thick	-9.11134
▁age	-9.11309
en	-9.11368
▁return	-9.11395
▁train	-9.11491
▁given	-9.11519
ity	-9.11962
▁gods	-9.12196
ic	-9.12283
▁re	-9.12299
man	-9.12388
▁trying	-9.12498
▁hes	-9.12574
▁wide	-9.12846
▁money	-9.12956
▁saying	-9.13208
▁nature	-9.13351
▁looks	-9.13376
▁brother	-9.13558
▁learn	-9.13965
▁isnt	-9.14018
▁often	-9.14022
▁whatever	-9.14032
▁takes	-9.14042
▁cross	-9.14086
no	-9.14278
▁everyone	-9.14308
▁wonder	-9.14712
▁burning	-9.14751
▁standing	-9.14929
▁start	-9.15079
▁walked	-9.15268
▁pull	-9.15424
▁history	-9.1551
▁drink	-9.15795
▁foot	-9.16124
▁different	-9.16217
▁five	-9.16386
▁turns	-9.16401
▁somewhere	-9.16777
▁brain	-9.16908
▁early	-9.17498
▁couldnt	-9.17802
▁heads	-9.17853
▁box	-9.1788
▁hills	-9.17893
▁arm	-9.18056
▁single	-9.18118
▁seem	-9.18145
▁tiny	-9.18277
▁lines	-9.18359
▁salt	-9.1851
▁streets	-9.1873
▁moving	-9.18748
▁caught	-9.18855
▁catch	-9.19047
▁king	-9.19074
▁desert	-9.19278
▁holy	-9.19298
▁bone	-9.19349
▁wine	-9.19452
▁nights	-9.19745
▁lights	-9.19748
▁mountains	-9.2015
▁secret	-9.20173
▁short	-9.20274
▁yourself	-9.20289
▁theyre	-9.20596
▁began	-9.20618
▁breast	-9.20651
▁mountain	-9.2079
▁corner	-9.21043
▁instead	-9.21286
▁forever	-9.21459
▁forth	-9.21946
by	-9.21952
▁lake	-9.22157
▁wear	-9.22288
▁pure	-9.22412
▁afternoon	-9.22542
▁ye	-9.22593
c	-9.22778
▁grace	-9.22781
▁imagine	-9.23017
▁mirror	-9.23576
▁family	-9.23585
we	-9.23866
▁understand	-9.2395
▁sister	-9.24492
▁grief	-9.24509
when	-9.24669
▁shore	-9.24822
▁known	-9.25031
▁b	-9.25096
at	-9.25326
▁suddenly	-9.25875
out	-9.25883
▁ten	-9.25998
▁rich	-9.26347
▁fathers	-9.26351
▁loud	-9.26503
▁watching	-9.26579
▁climb	-9.2666
▁taken	-9.26761
▁learned	-9.26769
▁church	-9.26915
▁burn	-9.26951
▁food	-9.2706
▁turning	-9.27218
▁reach	-9.27319
l	-9.27487
▁meant	-9.27862
▁whats	-9.28192
▁naked	-9.28347
▁falls	-9.28553
▁watched	-9.28613
▁kitchen	-9.28784
▁feeling	-9.28924
▁grew	-9.29087
▁answer	-9.29131
▁praise	-9.2915
▁begin	-9.29218
▁pleasure	-9.29482
▁neck	-9.29789
▁throat	-9.29815
▁top	-9.29907
▁doth	-9.30053
▁fruit	-9.30149
ry	-9.30161
▁poetry	-9.3036
▁filled	-9.30621
nt	-9.30729
▁bare	-9.30801
▁daughter	-9.30939
so	-9.30976
▁person	-9.31068
▁distance	-9.31089
▁means	-9.31301
▁save	-9.31414
▁bread	-9.31543
▁stones	-9.31828
▁flame	-9.31879
▁quick	-9.31903
▁except	-9.31982
▁passed	-9.32008
▁iron	-9.32086
▁wants	-9.32423
what	-9.32469
▁ghost	-9.32542
▁milk	-9.32724
▁rising	-9.33041
▁weight	-9.3321
▁tried	-9.33235
▁shoes	-9.3364
▁t	-9.33736
▁oer	-9.33833
▁cat	-9.33871
▁ears	-9.34182
▁straight	-9.34236
▁middle	-9.34393
▁wasnt	-9.34421
▁weather	-9.34561
h	-9.34788
ion	-9.35029
▁angels	-9.3511
▁least	-9.35124
▁ancient	-9.35196
▁lot	-9.35197
▁ring	-9.35309
▁dogs	-9.3538
▁holding	-9.35673
▁tall	-9.35853
ever	-9.3607
▁leaving	-9.36413
▁running	-9.36449
▁youth	-9.36483
▁drop	-9.36962
▁forest	-9.37098
▁hed	-9.37211
▁shade	-9.37291
▁anyone	-9.37446
▁fill	-9.37656
▁sweat	-9.37862
▁taste	-9.38073
▁shut	-9.38172
▁finally	-9.3829
▁step	-9.38311
▁neither	-9.38347
▁birth	-9.38387
▁dress	-9.38453
▁wing	-9.38465
▁books	-9.38696
▁woods	-9.38918
▁reason	-9.39008
▁large	-9.39097
▁knowing	-9.39149
▁laugh	-9.39412
▁roof	-9.39701
▁path	-9.39971
▁storm	-9.39973
▁dirt	-9.4006
▁wave	-9.40066
▁shed	-9.40168
▁cast	-9.40213
▁calm	-9.40235
▁north	-9.40281
▁ourselves	-9.40338
▁clothes	-9.40374
▁hundred	-9.40405
from	-9.40607
▁bow	-9.40692
▁poems	-9.40744
▁sitting	-9.40749
▁prayer	-9.40855
▁flat	-9.41069
▁houses	-9.4115
▁state	-9.41533
▁fresh	-9.41722
all	-9.4194
▁simple	-9.42374
▁west	-9.4244
▁chair	-9.42651
▁taking	-9.42949
▁present	-9.42991
▁sign	-9.43062
▁sounds	-9.43135
▁bar	-9.43232
▁view	-9.43264
▁certain	-9.43277
▁herself	-9.4341
▁closed	-9.43535
▁quite	-9.4368
▁ran	-9.4382
▁hath	-9.43821
▁coffee	-9.43865
▁ah	-9.44195
▁plain	-9.44269
▁moved	-9.44555
▁knees	-9.44598
men	-9.44598
▁poet	-9.44712
▁mid	-9.4472
▁winds	-9.44752
▁stands	-9.44987
▁purple	-9.45009
▁kill	-9.45027
▁hate	-9.45101
▁lovers	-9.45147
▁mud	-9.45336
▁angel	-9.45432
they	-9.45449
▁page	-9.45508
▁branches	-9.45953
▁twenty	-9.46076
▁beach	-9.46149
▁pick	-9.47012
▁youve	-9.47143
▁met	-9.4737
▁broke	-9.4743
▁delight	-9.47441
▁voices	-9.47651
▁forgotten	-9.47849
▁gives	-9.47911
▁south	-9.48366
▁either	-9.48661
▁steps	-9.48801
▁chest	-9.48827
▁crowd	-9.48855
▁gentle	-9.49088
▁writing	-9.49166
▁fat	-9.49264
▁boat	-9.49301
▁lose	-9.49593
▁blow	-9.49633
▁souls	-9.49769
▁songs	-9.49959
▁stream	-9.50221
▁hidden	-9.5023
▁beat	-9.50282
▁nest	-9.5029
▁carry	-9.5036
▁everywhere	-9.50362
▁passing	-9.50515
▁shot	-9.50916
▁vain	-9.50982
▁tear	-9.51148
▁question	-9.51337
▁six	-9.51481
▁opened	-9.51865
▁apart	-9.51902
▁flight	-9.52046
▁tired	-9.52083
▁ready	-9.52098
▁seven	-9.52123
▁fact	-9.52266
ish	-9.52363
▁picture	-9.52526
▁stopped	-9.52541
▁waters	-9.5295
▁miss	-9.52993
▁sleeping	-9.53357
▁glory	-9.53529
▁sorrow	-9.53664
▁order	-9.53839
▁rocks	-9.53916
▁throw	-9.54072
▁wound	-9.54144
▁image	-9.54232
▁orange	-9.54343
▁sunlight	-9.5443
▁became	-9.54469
▁hat	-9.54507
▁bridge	-9.546
▁surface	-9.54645
▁sharp	-9.54753
▁pray	-9.54788
▁tonight	-9.5483
▁nose	-9.54967
▁doors	-9.5504
▁send	-9.55205
▁bent	-9.55425
▁tis	-9.55683
▁spoke	-9.55751
▁spread	-9.55808
▁lying	-9.55884
th	-9.56075
▁drive	-9.56088
▁circle	-9.56133
▁finger	-9.5623
▁ways	-9.56287
how	-9.56319
▁shell	-9.56427
▁bit	-9.56528
▁park	-9.56629
▁shoulder	-9.56692
▁hide	-9.56841
▁force	-9.57018
▁common	-9.57132
▁trust	-9.57263
▁laid	-9.57272
▁store	-9.57594
▁bend	-9.57675
▁hunger	-9.57783
▁loose	-9.57784
▁prett	-9.57831
▁glad	-9.57876
▁talking	-9.57912
▁endless	-9.58108
▁lift	-9.58144
▁cup	-9.58303
▁moves	-9.5845
▁distant	-9.58525
▁ride	-9.58567
▁worlds	-9.58597
▁smooth	-9.58624
▁sang	-9.58967
▁faith	-9.5901
▁keeps	-9.59039
▁whether	-9.59251
ive	-9.59263
▁miles	-9.59292
▁sick	-9.59331
▁center	-9.59355
le	-9.59463
▁hung	-9.59808
▁cause	-9.60068
she	-9.60079
▁asleep	-9.60088
▁oil	-9.60182
▁ball	-9.60404
▁thread	-9.60404
▁grown	-9.60458
▁lovely	-9.60516
▁measure	-9.60539
▁hole	-9.60633
▁onto	-9.60841
lets	-9.61008
▁afraid	-9.61211
▁shes	-9.61315
▁dull	-9.6138
▁meat	-9.61458
▁lead	-9.61579
▁la	-9.61605
▁easy	-9.61805
▁animals	-9.61926
▁wouldnt	-9.62001
▁letters	-9.62028
▁lover	-9.62115
if	-9.62181
▁tea	-9.62256
▁bark	-9.62329
▁case	-9.62334
▁reading	-9.62381
▁sent	-9.62416
ment	-9.62423
▁places	-9.6243
day	-9.62512
▁sudden	-9.62587
▁mans	-9.62676
▁dim	-9.62941
▁rather	-9.62963
▁yard	-9.63455
▁carried	-9.6347
▁breeze	-9.6356
▁buried	-9.63659
▁game	-9.63699
▁shine	-9.63858
▁bitter	-9.63865
▁america	-9.64163
▁midnight	-9.64228
▁worth	-9.64265
▁tender	-9.64358
▁getting	-9.64389
▁cars	-9.64484
▁lonely	-9.64585
▁palm	-9.646
one	-9.64636
its	-9.64672
▁act	-9.64692
▁dusk	-9.64804
▁proud	-9.64868
▁tight	-9.64987
▁east	-9.65011
▁metal	-9.65241
▁beginning	-9.65248
▁shame	-9.65312
▁safe	-9.65318
▁meaning	-9.65418
▁thine	-9.65467
▁growing	-9.65588
▁doctor	-9.65649
▁cover	-9.65661
▁piece	-9.658
▁travel	-9.65922
▁breathing	-9.66008
▁bell	-9.66043
▁lit	-9.66138
▁count	-9.66167
▁letter	-9.66232
▁pulled	-9.66487
▁autumn	-9.66526
▁honey	-9.6655
▁faint	-9.66889
▁buy	-9.66918
▁wash	-9.66968
▁mist	-9.66972
▁flies	-9.66995
ritten	-9.67256
▁fallen	-9.67309
▁idea	-9.67582
▁shoulders	-9.67589
um	-9.67643
▁saint	-9.67683
▁holds	-9.67706
▁lady	-9.68187
▁mad	-9.68314
▁chance	-9.68489
▁number	-9.68845
▁wed	-9.68856
▁c	-9.6891
▁fate	-9.68973
▁belly	-9.68982
▁doing	-9.69065
▁push	-9.69067
▁playing	-9.69073
▁burst	-9.69379
▁grows	-9.69438
▁awake	-9.69676
▁torn	-9.69759
▁wise	-9.69974
▁roots	-9.69992
▁tide	-9.70244
▁note	-9.70297
▁knife	-9.70302
▁cries	-9.70356
▁enter	-9.70476
▁week	-9.70604
▁double	-9.7066
▁forward	-9.7073
▁stick	-9.70912
▁magic	-9.71034
then	-9.71097
▁thunder	-9.71131
▁animal	-9.71365
▁vision	-9.71379
▁breathe	-9.71382
▁pine	-9.71576
▁changed	-9.71578
▁happened	-9.71704
this	-9.71739
▁news	-9.71808
▁seat	-9.71846
▁loss	-9.71919
▁steel	-9.71949
▁speech	-9.72067
me	-9.72147
▁parents	-9.72186
age	-9.7232
▁calls	-9.72424
▁calling	-9.72524
▁pay	-9.72527
▁doubt	-9.72789
▁listening	-9.72954
▁although	-9.73027
▁plastic	-9.73038
where	-9.73163
▁american	-9.73278
▁gaze	-9.73345
▁seed	-9.73522
▁ash	-9.73588
▁wrote	-9.73653
▁gets	-9.73701
▁season	-9.73709
▁figure	-9.73761
▁laughter	-9.73804
▁frozen	-9.73864
▁grey	-9.73882
time	-9.73883
eyed	-9.73951
▁husband	-9.73982
▁roses	-9.73989
▁coat	-9.74059
▁cried	-9.74202
▁island	-9.74362
▁fit	-9.74611
▁hurt	-9.74632
▁pool	-9.74829
▁strength	-9.74889
▁built	-9.75
▁build	-9.75238
▁notes	-9.75255
▁becomes	-9.75296
▁narrow	-9.75455
▁bag	-9.75455
▁fold	-9.75461
▁flow	-9.75469
▁sink	-9.75554
▁bound	-9.75564
▁lean	-9.75593
▁sunday	-9.75608
▁root	-9.75726
▁skies	-9.75906
▁nobody	-9.76117
▁colors	-9.76185
▁kids	-9.76207
▁spent	-9.76286
▁painted	-9.76485
g	-9.76488
▁bus	-9.76647
▁english	-9.76815
▁killed	-9.76895
▁seek	-9.77009
▁flying	-9.77127
▁appear	-9.77155
▁teach	-9.77168
▁huge	-9.77211
▁slept	-9.77224
▁queen	-9.77242
▁lightning	-9.77544
who	-9.77673
▁master	-9.77772
▁thank	-9.77825
▁sees	-9.77926
▁race	-9.77951
▁roar	-9.77962
▁horizon	-9.78059
▁roll	-9.78091
▁sings	-9.78159
▁mark	-9.78183
eth	-9.78246
▁freedom	-9.78247
▁terrible	-9.7843
▁fog	-9.78501
▁sits	-9.78717
▁drunk	-9.78743
▁touched	-9.78796
▁grand	-9.78824
▁burned	-9.78918
▁branch	-9.7893
▁crack	-9.78953
▁working	-9.78956
▁marble	-9.7898
▁unto	-9.79022
▁frame	-9.79063
▁echo	-9.79153
▁phone	-9.79285
▁shining	-9.79306
▁stories	-9.7943
▁bottom	-9.79599
▁vast	-9.79678
▁row	-9.79735
▁ii	-9.7975
▁john	-9.79767
▁seeing	-9.7979
re	-9.799
▁limbs	-9.79955
▁hanging	-9.80022
▁hungry	-9.80033
▁brave	-9.80042
▁clay	-9.80287
▁leg	-9.8034
▁draw	-9.80375
▁christ	-9.80474
▁valley	-9.80534
▁shirt	-9.80591
▁feed	-9.80624
▁gate	-9.80633
▁blank	-9.80768
▁sunset	-9.80892
▁lawn	-9.80932
▁noise	-9.80995
▁corn	-9.81128
▁childhood	-9.81308
▁spot	-9.81442
▁gift	-9.81464
▁ship	-9.81476
▁fight	-9.8153
▁rivers	-9.81646
▁trouble	-9.81774
▁scent	-9.81843
▁stare	-9.81843
down	-9.81871
▁screen	-9.81919
▁poets	-9.82012
▁bees	-9.8208
▁started	-9.8215
▁possible	-9.82179
▁happen	-9.82405
▁cruel	-9.82563
▁bloom	-9.82574
▁scene	-9.82651
▁pride	-9.82672
▁mouths	-9.8274
▁invisible	-9.82741
▁machine	-9.82888
▁taught	-9.82979
▁gather	-9.83006
▁weep	-9.8301
▁float	-9.83102
▁sin	-9.83394
▁paint	-9.83457
▁sex	-9.83706
▁rooms	-9.83752
▁check	-9.83877
▁bowl	-9.84112
▁lifted	-9.84176
▁universe	-9.84181
▁glow	-9.84482
ation	-9.84487
▁deer	-9.84495
▁eternal	-9.84605
▁horses	-9.84819
▁played	-9.84907
▁wooden	-9.8491
▁familiar	-9.85085
▁bank	-9.85182
▁sons	-9.85346
▁apple	-9.85409
te	-9.85471
not	-9.85484
▁final	-9.85678
▁drift	-9.8587
▁welcome	-9.85877
▁hit	-9.8593
▁noon	-9.86128
▁clock	-9.86411
▁share	-9.86528
▁needs	-9.8659
▁crying	-9.86678
▁feathers	-9.8678
▁soil	-9.86803
▁york	-9.86814
▁hall	-9.87124
▁silk	-9.87146
▁somehow	-9.87175
▁wearing	-9.87192
▁brothers	-9.87248
▁minutes	-9.87273
▁rises	-9.87275
▁dancing	-9.87384
▁ends	-9.87392
▁parts	-9.8754
▁feels	-9.87569
▁eating	-9.87605
▁pause	-9.87651
▁snake	-9.87874
▁lack	-9.87935
▁rough	-9.87971
▁tells	-9.8801
ful	-9.88154
▁worn	-9.88161
▁despair	-9.88323
▁promise	-9.8849
▁map	-9.88532
▁soldiers	-9.88547
▁rare	-9.88558
▁opening	-9.88559
lit	-9.88674
▁ghosts	-9.88695
▁flood	-9.88765
▁hollow	-9.88841
▁tongues	-9.88844
her	-9.88968
▁begins	-9.89085
led	-9.89272
▁guess	-9.89493
▁tail	-9.8964
▁gun	-9.89915
▁heavens	-9.90002
▁wire	-9.90002
▁motion	-9.90049
▁steam	-9.90143
▁stuck	-9.90158
▁laughing	-9.90281
▁pity	-9.90314
▁wore	-9.90326
▁covered	-9.90327
▁drawn	-9.90823
▁raised	-9.90836
▁strangers	-9.90853
▁rage	-9.90867
▁crown	-9.90968
▁walks	-9.91223
▁dew	-9.91296
▁tomorrow	-9.91309
there	-9.91318
▁oak	-9.91789
▁dreaming	-9.91903
▁job	-9.91949
▁forms	-9.92091
▁giant	-9.92331
▁law	-9.92414
▁shake	-9.926
▁bay	-9.92611
▁daily	-9.92716
▁named	-9.92727
▁lo	-9.92757
▁months	-9.92794
▁speed	-9.92797
▁square	-9.92861
our	-9.92862
▁unknown	-9.92926
▁split	-9.92942
▁third	-9.93124
▁absence	-9.93265
▁march	-9.93316
▁wanting	-9.93319
▁string	-9.93334
▁hang	-9.93386
▁sail	-9.93495
▁match	-9.93511
▁breaking	-9.93737
▁frost	-9.93861
▁village	-9.93925
▁woke	-9.93988
▁bullet	-9.94199
▁nice	-9.94429
▁wheel	-9.9452
▁passion	-9.94536
▁waste	-9.94733
▁escape	-9.94823
▁simply	-9.94898
▁fence	-9.94909
▁sugar	-9.95157
▁dropped	-9.95229
▁followed	-9.95254
k	-9.95288
▁flash	-9.9529
▁drinking	-9.95399
▁comfort	-9.95497
▁thirst	-9.95595
ting	-9.95606
▁cities	-9.95812
▁sigh	-9.95883
▁terror	-9.96184
▁recall	-9.96334
▁porch	-9.96593
▁knowledge	-9.96739
his	-9.96762
▁floating	-9.96778
▁class	-9.96949
▁flew	-9.97088
▁choose	-9.97149
▁ahead	-9.9722
▁weary	-9.97393
▁french	-9.97445
▁radio	-9.975
▁block	-9.97685
▁asks	-9.97693
▁pair	-9.97732
▁post	-9.97813
▁false	-9.97846
▁sway	-9.97852
▁pocket	-9.97874
▁divine	-9.97905
▁sorry	-9.9794
▁truck	-9.97994
▁forgot	-9.98003
▁cheek	-9.9808
white	-9.98147
▁sacred	-9.98267
▁swift	-9.9829
▁brow	-9.98472
▁evil	-9.98518
▁dinner	-9.9854
▁happiness	-9.9857
▁speaking	-9.98611
▁fur	-9.9864
▁waking	-9.98786
▁tower	-9.98949
▁station	-9.99019
▁reveal	-9.99043
▁older	-9.99128
▁giving	-9.9916
▁presence	-9.99244
▁length	-9.9931
▁dirty	-9.99465
▁surely	-9.99632
▁brings	-9.99689
▁trace	-9.99699
▁dumb	-9.99797
▁brush	-9.99925
▁public	-10.0009
▁stole	-10.0017
▁business	-10.0021
▁seas	-10.0024
▁missing	-10.0024
▁breasts	-10.0028
▁staring	-10.0032
▁remain	-10.0032
▁thirty	-10.0033
▁breaks	-10.0041
▁bottle	-10.0056
▁exactly	-10.0066
▁fed	-10.0068
▁moonlight	-10.0069
▁consider	-10.0101
▁remains	-10.0105
▁band	-10.0109
halt	-10.0109
▁raise	-10.0138
▁ere	-10.0148
▁brick	-10.0153
▁stranger	-10.0167
▁abandoned	-10.0171
▁nowhere	-10.0207
▁stretch	-10.0237
▁hast	-10.0251
▁dressed	-10.0255
▁egg	-10.0258
▁ease	-10.0268
▁bells	-10.0275
▁luck	-10.0285
▁sort	-10.0292
▁fool	-10.0294
some	-10.0298
▁minute	-10.0301
▁runs	-10.0309
▁youd	-10.0322
▁company	-10.0344
weve	-10.0353
▁works	-10.0356
▁building	-10.0365
▁smiles	-10.0379
▁boots	-10.039
▁na	-10.0418
▁size	-10.0432
▁yesterday	-10.0433
▁ashes	-10.044
▁mass	-10.0446
▁bless	-10.0446
▁lap	-10.047
▁flag	-10.0518
▁amid	-10.0526
▁memories	-10.053
▁wrapped	-10.0531
▁ha	-10.0542
▁grain	-10.0554
▁cell	-10.056
are	-10.0563
▁bath	-10.057
▁ma	-10.0577
▁sisters	-10.0577
▁chicken	-10.0595
▁barely	-10.0604
▁gay	-10.0607
house	-10.0621
▁nearly	-10.0621
▁weak	-10.0628
▁dies	-10.0635
▁gas	-10.0638
▁weeks	-10.0641
▁blade	-10.0642
▁journey	-10.0645
▁battle	-10.0668
▁jesus	-10.0686
▁opens	-10.0687
into	-10.0698
▁landscape	-10.0702
▁shit	-10.0708
ah	-10.0709
▁knee	-10.0722
▁sheets	-10.0733
▁smiling	-10.0735
▁lip	-10.0738
▁weeds	-10.0742
im	-10.0748
▁angry	-10.0749
▁during	-10.0752
▁christmas	-10.0754
▁worse	-10.0754
▁broad	-10.0768
▁pond	-10.0794
▁blown	-10.08
▁rolled	-10.0812
▁dreamed	-10.082
▁office	-10.0839
▁behold	-10.0841
▁dragg	-10.0843
▁month	-10.0843
▁poison	-10.0847
▁wisdom	-10.0853
▁foam	-10.0863
▁natural	-10.0872
▁court	-10.0879
▁swim	-10.0882
▁join	-10.0893
▁track	-10.0893
▁roads	-10.0896
▁beer	-10.0913
▁drove	-10.0913
▁notice	-10.0916
▁plant	-10.0922
▁cloth	-10.0939
▁slip	-10.0949
▁skull	-10.0954
▁thinks	-10.0969
▁seeds	-10.0973
▁desk	-10.0974
▁delicate	-10.0988
▁expect	-10.0991
be	-10.0992
▁glance	-10.1006
▁pieces	-10.1011
▁blame	-10.1012
▁damp	-10.1022
▁m	-10.1025
▁whisper	-10.1026
▁stairs	-10.1026
▁pen	-10.1028
▁quickly	-10.1045
▁mute	-10.1052
▁choice	-10.1058
▁spirits	-10.1061
▁leather	-10.1067
▁grandmother	-10.1067
▁eternity	-10.1074
water	-10.1082
▁drag	-10.1089
▁therefore	-10.1105
▁separate	-10.1128
▁nurse	-10.1142
▁minds	-10.1146
▁attention	-10.1156
▁rings	-10.1162
▁feather	-10.1165
▁study	-10.1172
▁twilight	-10.1176
▁usual	-10.1188
▁dare	-10.1194
▁practice	-10.1207
▁suffer	-10.1208
▁kissed	-10.1231
▁ate	-10.1233
▁suffering	-10.1239
▁ink	-10.125
▁cream	-10.1253
▁search	-10.1257
▁mercy	-10.1259
wood	-10.127
▁iii	-10.1278
▁happens	-10.1283
▁tin	-10.1284
▁fancy	-10.1295
▁forgive	-10.1301
▁eight	-10.1305
▁crossed	-10.1308
▁numbers	-10.1308
▁jar	-10.1323
▁equal	-10.1341
▁ships	-10.1345
▁bought	-10.1357
▁further	-10.1363
light	-10.1371
▁prove	-10.1373
▁rolling	-10.1381
old	-10.1392
▁lamp	-10.141
▁strike	-10.1412
▁shout	-10.1422
▁mystery	-10.1436
▁honor	-10.1437
▁longing	-10.1448
▁list	-10.1451
▁cage	-10.1454
▁won	-10.1456
▁drew	-10.1462
▁alas	-10.1464
▁rush	-10.1476
▁shook	-10.1484
▁shelter	-10.1489
▁blossom	-10.1498
▁p	-10.1505
▁witness	-10.152
▁blast	-10.1523
os	-10.1528
▁trembling	-10.1531
▁indian	-10.1539
▁hotel	-10.1545
▁veins	-10.1553
▁lower	-10.1554
▁apples	-10.1554
▁explain	-10.1555
▁closer	-10.156
▁invent	-10.1562
▁subject	-10.1563
▁forehead	-10.1572
▁cling	-10.1572
▁steady	-10.1572
f	-10.1579
▁press	-10.1589
▁holes	-10.1599
▁weeping	-10.1605
▁placed	-10.1625
ist	-10.163
over	-10.1634
▁hover	-10.1639
▁easily	-10.1642
▁signs	-10.1657
▁shells	-10.1659
was	-10.1666
▁cracked	-10.1667
▁softly	-10.1678
▁translate	-10.1694
▁slight	-10.1707
▁leap	-10.171
▁april	-10.1714
▁twelve	-10.1714
▁tread	-10.1718
▁remind	-10.1722
▁fame	-10.1727
▁hid	-10.1736
▁painting	-10.1738
▁waits	-10.1766
ne	-10.1767
do	-10.1774
▁century	-10.1802
▁party	-10.1811
▁fires	-10.1818
de	-10.1829
▁drops	-10.183
▁sheep	-10.1833
▁million	-10.1836
ling	-10.1846
▁paradise	-10.1851
tic	-10.1851
▁pluck	-10.1855
▁plate	-10.1856
▁flames	-10.1859
▁chose	-10.1861
▁dread	-10.1866
▁k	-10.1873
▁problem	-10.1891
▁fierce	-10.1892
▁led	-10.1907
▁knock	-10.1909
▁stiff	-10.1915
▁anger	-10.1917
▁eggs	-10.1921
▁neighbors	-10.1922
▁th	-10.1923
▁locked	-10.1925
▁busy	-10.1926
▁kings	-10.1938
▁worked	-10.1941
▁pulse	-10.195
▁famous	-10.1966
▁tune	-10.1983
▁lust	-10.1986
▁rope	-10.199
▁appears	-10.2
▁blows	-10.2005
▁lace	-10.2008
▁impossible	-10.2011
▁purpose	-10.2015
▁brief	-10.2029
▁struck	-10.2034
▁married	-10.2046
▁deeper	-10.2051
▁womans	-10.2053
▁petals	-10.2058
▁needed	-10.2059
▁pot	-10.2059
▁thrown	-10.2062
▁spare	-10.2076
▁arrive	-10.2081
▁win	-10.2085
▁moments	-10.2086
▁anyway	-10.2093
▁wandering	-10.2094
▁marriage	-10.21
▁police	-10.2102
▁gathered	-10.2106
▁woe	-10.211
▁twice	-10.2111
▁unless	-10.2117
▁daughters	-10.2118
▁august	-10.2122
▁shop	-10.2135
▁beating	-10.2145
▁raw	-10.215
▁cave	-10.2154
▁spend	-10.2167
long	-10.2171
▁butter	-10.2176
▁believed	-10.2179
▁difficult	-10.2189
▁fashion	-10.2214
▁sadness	-10.2216
▁level	-10.2217
▁chase	-10.2218
▁prison	-10.2219
back	-10.2222
▁wedding	-10.2225
▁changing	-10.2228
▁hospital	-10.2229
▁scorn	-10.2234
▁edges	-10.2241
▁mighty	-10.2246
▁curse	-10.2248
▁planet	-10.2258
▁pre	-10.2261
▁mask	-10.2262
▁shift	-10.2281
▁thumb	-10.2289
▁traffic	-10.2293
▁paid	-10.2295
▁key	-10.2297
▁despite	-10.2305
▁loving	-10.2307
▁barn	-10.2308
▁remembered	-10.2314
red	-10.2315
▁disappear	-10.2317
▁stage	-10.2322
▁needle	-10.2327
▁fifty	-10.2328
▁gently	-10.2328
...	-10.2331
▁pressed	-10.2337
side	-10.2345
▁moan	-10.2357
▁border	-10.2371
▁steal	-10.2396
▁washed	-10.2398
▁somebody	-10.2399
▁fix	-10.2408
▁asking	-10.2415
▁stuff	-10.2424
ng	-10.2425
▁wit	-10.2429
off	-10.2439
▁mary	-10.2462
▁shapes	-10.2468
▁beloved	-10.2474
▁sword	-10.2477
▁blossoms	-10.248
un	-10.2483
ie	-10.2489
picked	-10.2496
▁strain	-10.2497
▁offer	-10.25
▁fills	-10.2512
▁spill	-10.2512
▁damn	-10.2527
▁bloody	-10.2528
your	-10.2528
▁whistle	-10.2532
▁soup	-10.2537
▁higher	-10.2537
▁gleam	-10.2538
▁swallow	-10.2545
▁treasure	-10.2551
▁mostly	-10.2551
▁difference	-10.2554
▁sake	-10.2556
▁shows	-10.2558
▁content	-10.2568
▁worry	-10.2572
▁dis	-10.258
▁strip	-10.2587
▁mood	-10.26
▁creature	-10.2607
▁serve	-10.2613
▁pages	-10.2614
through	-10.2616
▁spit	-10.2617
▁pearl	-10.2619
▁arent	-10.2623
▁deaths	-10.2632
▁chain	-10.2652
▁bars	-10.2654
▁constant	-10.266
▁riding	-10.2661
▁fist	-10.2668
▁hearing	-10.2681
▁anymore	-10.2681
▁bliss	-10.269
▁fail	-10.2695
▁hangs	-10.2697
land	-10.2704
▁darken	-10.2707
▁sell	-10.2712
▁beast	-10.2714
ary	-10.2715
▁crows	-10.2717
▁bat	-10.272
▁x	-10.2729
▁claim	-10.2732
w	-10.2737
▁chairs	-10.2746
work	-10.2758
▁joke	-10.2769
▁driving	-10.2787
▁kisses	-10.2789
▁crawl	-10.2792
▁foreign	-10.2794
▁sheet	-10.2814
▁june	-10.2823
▁local	-10.2825
▁creatures	-10.2854
▁neighbor	-10.2865
▁stretched	-10.287
▁burns	-10.2876
▁veil	-10.2878
▁cats	-10.2883
▁pictures	-10.2894
▁laughed	-10.2907
▁deliver	-10.291
▁avenue	-10.2921
▁wander	-10.2927
▁returned	-10.2928
▁probably	-10.2948
▁wool	-10.2949
▁ceiling	-10.296
▁upward	-10.2962
▁changes	-10.2969
▁crystal	-10.2974
▁scream	-10.2979
▁market	-10.2986
▁drank	-10.2988
▁wars	-10.2989
▁apartment	-10.299
▁glorious	-10.2995
▁fixed	-10.3011
▁hopes	-10.303
▁accept	-10.3043
ized	-10.3053
▁trail	-10.3062
▁suit	-10.3064
b	-10.3082
▁collect	-10.3086
▁cheeks	-10.3092
▁chinese	-10.3093
▁sought	-10.3093
▁decay	-10.3095
▁virgin	-10.3109
▁spine	-10.3116
▁electric	-10.3119
▁dad	-10.3127
▁hunt	-10.3127
▁graves	-10.3135
▁stomach	-10.3136
▁record	-10.3145
▁rice	-10.3145
ur	-10.3149
▁awful	-10.3151
▁corners	-10.3151
▁thighs	-10.3156
▁haunt	-10.316
▁mr	-10.3161
▁palms	-10.3162
▁ripe	-10.3165
▁complete	-10.317
▁pretend	-10.317
▁bedroom	-10.3172
▁guy	-10.3173
ian	-10.3177
▁camera	-10.3177
p	-10.3178
▁hum	-10.3182
▁wealth	-10.3194
▁passes	-10.3196
▁direction	-10.3197
▁soak	-10.32
now	-10.3203
▁crow	-10.3205
▁spell	-10.321
▁worst	-10.3212
▁solid	-10.3217
▁leaning	-10.3218
▁swimming	-10.3219
▁tomb	-10.3227
▁shoe	-10.3236
▁meadow	-10.3239
▁g	-10.3254
▁finds	-10.3257
▁movie	-10.3258
▁keeping	-10.3259
▁inner	-10.3267
▁jack	-10.3267
▁learning	-10.3275
▁reached	-10.3277
were	-10.3282
▁underneath	-10.3283
black	-10.3285
▁favorite	-10.3287
▁ragged	-10.3288
▁pitch	-10.3288
▁spark	-10.3291
▁stops	-10.3307
rs	-10.3317
▁blessed	-10.3334
▁images	-10.3344
▁spray	-10.3345
▁thanks	-10.3361
▁stroke	-10.3367
▁needles	-10.3373
▁lunch	-10.3382
▁f	-10.3391
▁rhythm	-10.3397
▁stack	-10.3408
▁dried	-10.3411
▁guide	-10.3415
▁gates	-10.3422
▁failed	-10.3423
▁farmer	-10.3428
▁bore	-10.3432
▁slide	-10.3433
▁priest	-10.3438
▁blessing	-10.344
▁firm	-10.3448
▁becoming	-10.3448
▁sides	-10.345
u	-10.3453
▁sweep	-10.3456
▁arrived	-10.3471
▁fox	-10.3477
▁dusty	-10.3478
which	-10.3482
▁private	-10.3486
▁forty	-10.3493
▁aside	-10.3493
▁carrying	-10.3494
▁whispering	-10.3495
▁mornings	-10.3497
▁soldier	-10.35
▁visit	-10.3506
▁pipe	-10.3513
▁emptiness	-10.3518
▁ordinary	-10.3518
▁pour	-10.3519
▁bold	-10.3524
▁wheat	-10.3527
▁fever	-10.3538
▁general	-10.3539
▁rows	-10.3544
▁burden	-10.3547
▁wheels	-10.3551
▁uncle	-10.356
▁hail	-10.3567
ton	-10.3579
▁protect	-10.358
▁odd	-10.3581
▁lone	-10.3582
▁goodbye	-10.3587
▁fled	-10.3588
▁gathering	-10.359
▁pleasant	-10.3596
▁tied	-10.3599
▁endure	-10.3601
▁slice	-10.3601
▁heap	-10.3604
▁crazy	-10.3604
ring	-10.361
▁entered	-10.3613
▁shower	-10.3613
▁cotton	-10.3614
▁health	-10.363
▁lion	-10.3632
▁wilt	-10.3637
▁speaks	-10.364
▁waited	-10.3641
▁virtue	-10.3646
▁buildings	-10.365
▁threw	-10.3656
▁nine	-10.3657
▁v	-10.3657
▁carved	-10.3664
▁height	-10.3665
▁native	-10.3668
▁lifts	-10.367
▁enemy	-10.3675
▁embrace	-10.3678
▁otherwise	-10.3678
z	-10.3691
▁base	-10.3698
▁orchard	-10.3708
▁sticks	-10.3711
x	-10.3713
▁jump	-10.3713
▁verse	-10.3724
▁hiding	-10.3727
▁candle	-10.3732
▁cheap	-10.374
▁touching	-10.3741
▁coast	-10.3751
green	-10.3753
▁exist	-10.3764
▁ruin	-10.3765
▁loneliness	-10.3775
▁straw	-10.3776
▁blowing	-10.3778
▁tracks	-10.3786
▁indeed	-10.3789
▁suns	-10.3789
▁harvest	-10.3802
▁bush	-10.3805
▁nation	-10.3839
▁infinite	-10.3847
after	-10.3847
▁wept	-10.3847
ance	-10.3851
▁wrist	-10.3857
▁glasses	-10.3861
▁tho	-10.3864
▁joys	-10.3875
▁screaming	-10.3881
▁army	-10.3893
▁mortal	-10.3893
▁curl	-10.3893
▁chin	-10.3906
▁understood	-10.391
id	-10.391
▁begun	-10.391
▁visible	-10.3911
▁danger	-10.3914
▁surprise	-10.3918
▁tooth	-10.3921
▁stupid	-10.3921
▁farm	-10.3933
▁unseen	-10.3937
▁spin	-10.3945
▁trick	-10.3953
▁swept	-10.3961
▁lungs	-10.3963
▁swing	-10.3964
▁tremble	-10.397
▁cake	-10.3971
▁backs	-10.3973
▁bite	-10.3989
headed	-10.3997
▁harm	-10.3999
▁mirrors	-10.4
▁kick	-10.4
▁arc	-10.4001
▁important	-10.4004
▁horn	-10.4014
▁mom	-10.4034
▁chill	-10.4049
▁kneel	-10.4049
▁closet	-10.405
lined	-10.406
▁gloom	-10.4061
colored	-10.4061
▁wears	-10.4064
▁trade	-10.4073
▁havent	-10.4074
▁fortune	-10.4093
▁daylight	-10.4093
▁action	-10.4094
▁cheer	-10.4095
▁reaching	-10.4096
▁nails	-10.4099
▁plum	-10.4107
▁extend	-10.4108
▁swear	-10.4112
▁england	-10.4113
▁theyd	-10.4114
▁scar	-10.4119
▁warmth	-10.4133
▁suppose	-10.4136
▁points	-10.4144
▁bosom	-10.4154
▁remembering	-10.4163
▁moss	-10.4165
▁gardens	-10.4165
▁liquid	-10.4169
▁stir	-10.4169
▁patch	-10.4176
▁fade	-10.4182
▁camp	-10.4184
▁sleeps	-10.4187
▁quietly	-10.4195
▁message	-10.4199
▁san	-10.4204
▁clutch	-10.421
▁curtain	-10.421
▁source	-10.4211
▁several	-10.4214
▁immortal	-10.4215
▁mama	-10.4215
▁cook	-10.4219
▁carefully	-10.4223
▁pulling	-10.4229
▁birthday	-10.4248
▁finding	-10.4253
▁labor	-10.4266
▁bee	-10.4269
▁photograph	-10.4278
▁piano	-10.428
▁grant	-10.428
ory	-10.4284
▁drown	-10.4296
▁pillow	-10.4303
▁spider	-10.4305
▁starts	-10.4319
▁survive	-10.4324
▁dig	-10.4324
▁neighborhood	-10.4328
▁drowned	-10.4329
▁instant	-10.4349
▁fond	-10.4354
▁patient	-10.4358
▁horror	-10.4364
▁rent	-10.4367
▁tip	-10.438
▁utter	-10.4383
▁smiled	-10.4387
▁twisted	-10.439
▁curve	-10.4402
born	-10.4404
▁sighs	-10.4406
▁special	-10.4417
▁beds	-10.4418
▁breakfast	-10.4419
▁seasons	-10.4419
▁cousin	-10.4421
▁summers	-10.4425
▁eyelids	-10.443
▁velvet	-10.4435
▁rust	-10.4436
▁trunk	-10.4447
▁scarce	-10.445
▁boats	-10.4457
▁counter	-10.446
▁saved	-10.4462
▁sir	-10.4468
▁film	-10.4474
▁foe	-10.4476
▁lands	-10.4476
▁burnt	-10.4477
line	-10.4478
▁direct	-10.4481
▁plane	-10.4482
▁questions	-10.4483
▁stink	-10.4486
▁lightly	-10.4493
▁shy	-10.4496
▁kid	-10.4498
▁existence	-10.4498
▁service	-10.4498
▁plan	-10.4504
▁add	-10.4508
▁pile	-10.4508
▁tale	-10.4517
▁struggle	-10.4518
▁bears	-10.4519
way	-10.4527
▁shoot	-10.4529
their	-10.4534
▁setting	-10.4535
▁date	-10.4536
▁pattern	-10.4542
▁rot	-10.455
▁waving	-10.4558
▁arch	-10.456
▁pines	-10.4564
▁scattered	-10.4566
▁shatter	-10.4571
▁approach	-10.4573
▁infant	-10.4585
▁ladies	-10.4586
▁female	-10.4593
▁wounds	-10.4595
year	-10.4605
▁imagination	-10.4607
▁rome	-10.4609
▁lucky	-10.4612
▁h	-10.4612
▁springs	-10.4619
▁morn	-10.4626
▁wax	-10.4627
▁paris	-10.4631
▁pack	-10.4632
▁especially	-10.4636
▁ribbon	-10.4636
▁skirt	-10.4637
▁lily	-10.4643
▁eaten	-10.4644
▁main	-10.4648
▁plants	-10.4661
▁keys	-10.4663
▁hero	-10.467
▁mild	-10.4671
▁sour	-10.4676
▁pin	-10.4676
▁carries	-10.4677
ter	-10.468
▁beam	-10.4682
▁reflect	-10.4684
▁merely	-10.4686
▁doorway	-10.469
▁lock	-10.4714
▁slope	-10.4724
▁imagined	-10.4733
▁rabbit	-10.4742
▁worm	-10.4743
▁courage	-10.4759
▁solitude	-10.4759
▁couple	-10.4764
▁whispered	-10.4765
▁flung	-10.4768
▁text	-10.4778
▁fuck	-10.478
▁truly	-10.4784
▁laws	-10.4785
▁bottles	-10.479
▁bronze	-10.4796
▁cap	-10.4802
▁mis	-10.4804
▁lifes	-10.4806
▁honour	-10.4813
▁suck	-10.4823
▁slave	-10.4829
▁enjoy	-10.4833
▁contain	-10.4836
▁china	-10.4836
▁cliff	-10.4837
▁babies	-10.4848
▁gravel	-10.4851
▁sting	-10.4851
▁reflection	-10.4852
▁circles	-10.4853
▁vague	-10.4856
▁toil	-10.4861
head	-10.4878
▁hay	-10.4881
▁dove	-10.4886
▁perch	-10.4897
▁glide	-10.491
ally	-10.4913
▁guard	-10.4915
▁wounded	-10.4923
▁powder	-10.493
▁chorus	-10.4931
▁deck	-10.4937
▁tv	-10.4937
▁spanish	-10.4937
▁plot	-10.4943
▁judge	-10.4944
▁aint	-10.4947
▁vi	-10.4952
▁swarm	-10.4968
▁particular	-10.4978
▁shines	-10.4979
▁farewell	-10.499
▁iv	-10.4993
▁swell	-10.4993
▁linger	-10.4994
▁trip	-10.4995
▁wreck	-10.4996
▁devil	-10.4997
▁shaking	-10.4998
night	-10.4999
▁dost	-10.5001
▁highway	-10.5013
▁blew	-10.5028
ial	-10.503
▁bags	-10.5038
can	-10.5043
▁lifting	-10.5044
▁ache	-10.505
▁various	-10.5051
▁pushed	-10.5054
ism	-10.5055
go	-10.5058
even	-10.5066
ward	-10.5073
▁bid	-10.5082
▁anywhere	-10.5088
▁smart	-10.5091
let	-10.5092
▁slightly	-10.51
▁streams	-10.51
▁mistake	-10.51
▁quarter	-10.5104
▁belt	-10.5105
▁stain	-10.5112
▁pavement	-10.5118
▁wherever	-10.5122
▁mere	-10.5142
▁concrete	-10.5157
▁drifting	-10.5162
▁belong	-10.5163
▁frail	-10.5163
▁careful	-10.5163
▁cigarette	-10.5173
▁greater	-10.5175
▁conversation	-10.5179
v	-10.5179
▁finish	-10.518
▁creek	-10.5181
▁paths	-10.5182
▁yell	-10.5185
▁bleeding	-10.5187
▁childs	-10.5193
▁bull	-10.5194
▁fun	-10.5204
▁lick	-10.5209
most	-10.5214
▁example	-10.5218
▁fought	-10.5218
▁rode	-10.522
▁maid	-10.5222
▁entirely	-10.5233
▁farther	-10.5236
▁marks	-10.5243
▁pockets	-10.5243
▁beard	-10.5245
▁control	-10.5248
▁tossed	-10.5253
▁current	-10.5259
▁destroy	-10.526
▁filling	-10.526
▁spoon	-10.5265
▁wail	-10.5267
▁yours	-10.5267
▁innocent	-10.5272
▁teacher	-10.5275
▁en	-10.5277
▁altar	-10.528
▁hurry	-10.5283
▁cutting	-10.5283
▁entire	-10.5288
▁roman	-10.5288
▁temple	-10.529
▁slick	-10.5295
▁creation	-10.5302
▁wilderness	-10.5303
▁funeral	-10.5303
▁fears	-10.5304
▁honest	-10.5305
▁swollen	-10.5311
▁killing	-10.5312
▁liberty	-10.5312
▁ugly	-10.5326
▁fragment	-10.5326
▁opposite	-10.5326
▁feast	-10.5335
▁wrap	-10.5336
▁glittering	-10.5342
▁shades	-10.5343
▁el	-10.5344
▁cost	-10.5351
▁bomb	-10.5353
▁blur	-10.5354
▁roam	-10.5356
▁draws	-10.5359
made	-10.5374
▁crossing	-10.5376
▁shock	-10.5378
▁guns	-10.5384
▁enormous	-10.5396
▁bill	-10.5398
▁tie	-10.5398
▁tunnel	-10.54
ine	-10.5418
▁gain	-10.542
yet	-10.5421
▁void	-10.5428
▁haul	-10.5431
▁centuries	-10.5436
▁cough	-10.544
▁hammer	-10.5447
▁curtains	-10.5447
▁moons	-10.5449
▁brilliant	-10.5451
▁deaf	-10.5452
▁sweetness	-10.5455
.—	-10.5462
▁ex	-10.5471
▁folks	-10.5477
▁thousands	-10.5483
▁stumble	-10.549
▁hips	-10.5491
▁cease	-10.5497
▁rag	-10.551
▁whirl	-10.5511
while	-10.5514
▁womb	-10.5515
▁curious	-10.5519
▁muscle	-10.5534
▁shiver	-10.5543
▁finished	-10.5544
▁darling	-10.5548
▁perfume	-10.5549
▁sidewalk	-10.5552
▁coal	-10.5558
▁witch	-10.5562
▁disappeared	-10.5567
▁stem	-10.5578
▁foolish	-10.5584
▁neat	-10.5585
▁tiger	-10.5586
▁moth	-10.5586
▁whale	-10.5588
▁treat	-10.5591
▁restless	-10.5603
▁useless	-10.5611
▁owl	-10.5613
▁sold	-10.5614
▁pasture	-10.5614
▁echoes	-10.5621
▁system	-10.5623
twas	-10.5638
▁daddy	-10.5647
▁planted	-10.5665
na	-10.5665
▁stillness	-10.5676
▁tick	-10.5678
▁failure	-10.5682
▁shallow	-10.5684
▁banks	-10.5684
▁bits	-10.5687
oh	-10.5691
▁flush	-10.5694
▁smells	-10.5697
▁bald	-10.5701
▁chains	-10.5702
ily	-10.5706
▁serious	-10.5708
am	-10.5716
▁bearing	-10.5719
▁lesson	-10.572
▁waist	-10.5721
▁loop	-10.5721
▁secrets	-10.5721
▁dome	-10.5721
▁boil	-10.5726
▁pants	-10.5731
▁discover	-10.5733
▁heels	-10.5733
▁din	-10.5736
▁cups	-10.5738
▁worms	-10.5738
▁knives	-10.5739
se	-10.5739
▁trash	-10.574
▁meanwhile	-10.5741
ier	-10.5742
▁arrow	-10.5745
▁patience	-10.5752
▁hey	-10.5753
▁grasses	-10.5768
▁cattle	-10.5779
▁metaphor	-10.5781
▁merry	-10.5781
▁lamb	-10.5782
▁intent	-10.5783
▁pig	-10.5787
▁telephone	-10.5791
▁hood	-10.5799
▁fault	-10.5803
▁colour	-10.5806
▁polished	-10.5809
▁mourning	-10.5815
▁dropping	-10.5821
▁regret	-10.583
▁rat	-10.5831
▁crushed	-10.5832
▁heres	-10.5836
▁supposed	-10.5838
▁idle	-10.584
la	-10.584
▁prefer	-10.5844
▁soap	-10.5849
▁relief	-10.5853
▁avoid	-10.5862
▁earths	-10.5863
▁fountain	-10.5865
nor	-10.5873
▁library	-10.5877
▁couch	-10.5877
more	-10.5878
▁spinning	-10.588
▁throne	-10.588
▁blanket	-10.5888
▁bride	-10.5888
ant	-10.589
▁release	-10.5892
▁curled	-10.5896
▁steep	-10.5901
▁rubber	-10.5902
▁net	-10.5903
▁twin	-10.5905
will	-10.5909
▁disease	-10.5918
▁prayers	-10.5923
▁plays	-10.5934
▁creep	-10.5936
▁smaller	-10.5938
▁pigeons	-10.594
▁inch	-10.5946
▁mrs	-10.5949
▁closing	-10.5951
▁cock	-10.5956
▁rats	-10.5966
▁faded	-10.5968
▁lilies	-10.5969
▁museum	-10.597
▁em	-10.599
▁puts	-10.5994
▁ants	-10.5994
▁card	-10.6
▁humble	-10.6021
▁noble	-10.6021
▁gown	-10.6022
▁returning	-10.6022
▁actually	-10.6027
▁inward	-10.6034
▁gravity	-10.6035
faced	-10.6035
▁cherry	-10.6035
▁hello	-10.6038
▁cells	-10.6039
▁forced	-10.604
▁easter	-10.6044
▁violence	-10.6044
▁candles	-10.6044
▁murmur	-10.6046
▁tent	-10.6048
▁mixed	-10.6051
▁glitter	-10.6053
▁plains	-10.6054
▁fan	-10.6061
▁rule	-10.6067
▁storms	-10.6071
▁showed	-10.6073
▁grim	-10.6081
▁wondering	-10.6083
have	-10.6085
▁board	-10.609
ch	-10.6092
▁ended	-10.6097
▁london	-10.6102
▁co	-10.6104
completely	-10.6108
▁hence	-10.6108
▁slipped	-10.6114
▁rhyme	-10.6117
▁recognize	-10.6118
▁weigh	-10.6121
▁elsewhere	-10.6123
▁exhaust	-10.6128
▁natures	-10.6136
▁grandfather	-10.6139
▁wolf	-10.6145
▁poured	-10.6149
▁miracle	-10.6158
▁muse	-10.6168
▁president	-10.6168
▁precious	-10.6169
▁beats	-10.6175
▁phantom	-10.6177
▁stripped	-10.618
▁jewel	-10.6183
▁overhead	-10.6188
▁dangerous	-10.6189
▁appeared	-10.619
▁greet	-10.6193
▁handle	-10.6196
▁dissolve	-10.6197
▁sung	-10.6211
▁wondered	-10.6213
▁brass	-10.6218
▁test	-10.6228
▁create	-10.6229
▁limp	-10.6232
▁strings	-10.6232
▁flags	-10.6236
▁admit	-10.6243
▁liked	-10.6255
▁ray	-10.6261
▁twist	-10.6262
▁don	-10.6263
▁sack	-10.6272
▁mix	-10.6278
▁nervous	-10.6279
▁justice	-10.6281
▁climbing	-10.6283
five	-10.6284
▁mouse	-10.6285
▁solemn	-10.6285
▁whispers	-10.6291
▁scratch	-10.6293
▁click	-10.6295
▁larger	-10.6295
▁price	-10.6307
▁sets	-10.6308
▁reel	-10.6312
▁wrought	-10.6323
▁missed	-10.6326
▁tone	-10.6331
▁scale	-10.6331
▁alarm	-10.6338
▁balance	-10.6348
▁pace	-10.6349
▁cure	-10.6363
▁spite	-10.6364
▁tries	-10.6365
ted	-10.6366
▁blues	-10.6367
▁choke	-10.6382
▁prairie	-10.6382
▁jacket	-10.6382
▁engine	-10.6388
▁model	-10.6396
▁object	-10.64
▁comb	-10.64
▁peach	-10.6404
▁nay	-10.6406
▁objects	-10.6406
▁chocolate	-10.6409
▁cares	-10.6418
▁former	-10.642
▁hawk	-10.6434
▁nail	-10.6436
▁mail	-10.6442
▁summon	-10.6444
▁ruins	-10.6445
flies	-10.6455
cy	-10.6458
▁club	-10.6462
▁maple	-10.6462
▁gesture	-10.6478
ts	-10.6478
▁basement	-10.6478
▁cow	-10.6479
▁hook	-10.6483
▁harbor	-10.6485
▁ought	-10.6486
▁blades	-10.6488
▁experience	-10.6489
▁web	-10.6491
▁photo	-10.6493
▁towers	-10.6501
▁mi	-10.6516
▁command	-10.6517
▁repeat	-10.6518
▁eve	-10.6524
▁noticed	-10.6532
▁collapse	-10.6545
▁spiral	-10.6549
▁basket	-10.6562
▁prey	-10.6563
▁allow	-10.6563
▁vines	-10.6565
▁movement	-10.6571
▁shimmer	-10.6574
▁due	-10.6576
▁vanished	-10.6578
▁october	-10.6583
▁male	-10.659
▁thrust	-10.6594
▁answered	-10.66
▁drum	-10.6602
ities	-10.6607
▁subtle	-10.6607
▁chamber	-10.6615
▁papers	-10.6616
▁furniture	-10.6618
▁pointed	-10.6623
▁receive	-10.6625
▁driven	-10.663
▁listened	-10.6636
▁surrounded	-10.6652
▁western	-10.6652
▁copper	-10.6652
▁younger	-10.6656
▁l	-10.666
▁borrow	-10.6662
▁answers	-10.6672
▁kingdom	-10.6673
▁floats	-10.6675
▁slaves	-10.6684
▁describe	-10.669
▁dwell	-10.6696
▁saturday	-10.6698
▁coyote	-10.6698
▁con	-10.6704
▁pole	-10.6705
still	-10.671
▁greek	-10.672
ruined	-10.6725
▁faithful	-10.6725
▁manage	-10.6732
▁forgetting	-10.6736
▁beasts	-10.6741
▁gin	-10.6748
▁melt	-10.6749
▁wonderful	-10.675
▁non	-10.6751
▁glint	-10.6753
▁whoever	-10.6756
▁pan	-10.6759
▁pleasures	-10.6778
▁prize	-10.6778
▁confess	-10.6781
▁passage	-10.6782
▁duck	-10.6783
▁stock	-10.6806
▁delay	-10.6807
▁refuse	-10.6813
▁focus	-10.6815
▁beads	-10.6844
▁violent	-10.6852
▁eager	-10.6854
▁....	-10.6854
▁gleaming	-10.6871
▁splash	-10.6883
▁ending	-10.6887
▁insist	-10.6887
▁yield	-10.6888
▁swinging	-10.689
▁report	-10.689
▁account	-10.6891
▁ladder	-10.6894
▁flowing	-10.6897
▁wakes	-10.6898
▁crime	-10.6901
▁glowing	-10.6905
▁host	-10.6909
▁personal	-10.6913
▁flutter	-10.6918
▁imaginar	-10.6922
▁funny	-10.6924
▁oft	-10.6932
▁spun	-10.6942
▁fragile	-10.6942
▁ages	-10.6943
▁beams	-10.6943
▁tips	-10.6944
▁juice	-10.6946
▁stoop	-10.6952
▁ribs	-10.6953
▁trains	-10.6955
▁range	-10.6957
▁smoking	-10.696
▁event	-10.6964
▁figures	-10.6965
▁weave	-10.6973
▁wished	-10.6997
sliding	-10.6998
▁hush	-10.7003
▁meeting	-10.7004
▁boughs	-10.7005
▁grind	-10.7009
▁stray	-10.7015
▁continue	-10.7016
▁j	-10.7016
▁express	-10.7019
co	-10.7023
▁audience	-10.7024
▁clearly	-10.7024
▁error	-10.7025
▁attempt	-10.7025
ia	-10.7029
▁rude	-10.703
▁worship	-10.7037
▁drawing	-10.704
▁value	-10.7044
▁spoken	-10.7046
▁phrase	-10.7051
▁bringing	-10.7052
el	-10.7057
▁prince	-10.7059
▁thigh	-10.7059
▁bang	-10.706
▁vine	-10.707
▁diamond	-10.707
▁leads	-10.7074
▁fourth	-10.7075
▁rifle	-10.7075
▁upper	-10.7093
▁cigarettes	-10.7096
▁cards	-10.7105
▁flee	-10.7105
▁cedar	-10.7114
▁keen	-10.7117
▁wink	-10.7119
▁floors	-10.7122
▁skill	-10.7124
▁violet	-10.7129
▁sacrifice	-10.7134
▁amber	-10.7135
▁bathroom	-10.7135
▁solitar	-10.7136
▁frog	-10.7136
just	-10.7138
▁tap	-10.714
▁pencil	-10.7145
▁rainbow	-10.7145
▁evenings	-10.7148
▁slips	-10.7153
▁murder	-10.7165
▁wishes	-10.7165
▁turtle	-10.7166
▁july	-10.7167
▁bud	-10.7176
▁claw	-10.7186
▁returns	-10.7186
▁plates	-10.7186
▁forests	-10.7187
▁counting	-10.7193
▁print	-10.72
▁core	-10.7217
▁belief	-10.7217
▁pouring	-10.7225
▁lest	-10.7229
selves	-10.7231
▁science	-10.7237
▁watches	-10.7237
▁marked	-10.724
▁german	-10.7242
▁braid	-10.7246
ke	-10.7247
▁poverty	-10.7248
▁innocence	-10.7258
▁wives	-10.726
▁icy	-10.7261
▁foul	-10.7263
▁style	-10.7271
▁score	-10.7276
▁devour	-10.7276
▁duty	-10.7277
▁mess	-10.7279
▁laughs	-10.7281
▁savage	-10.7284
▁helpless	-10.7287
▁depths	-10.7295
▁shakes	-10.7309
▁searching	-10.7317
▁flock	-10.7317
board	-10.7325
▁balls	-10.7329
▁cradle	-10.7334
▁crush	-10.7342
▁feelings	-10.7345
▁fighting	-10.7345
ship	-10.7348
▁odor	-10.7348
▁angle	-10.7357
▁+++++++++++++	-10.7361
▁california	-10.7361
▁servant	-10.7361
▁marry	-10.7363
▁colored	-10.7366
▁mourn	-10.7371
▁ditch	-10.7381
▁parking	-10.7384
▁unit	-10.7386
▁guitar	-10.7388
▁chime	-10.7391
▁senses	-10.7393
▁rules	-10.7399
▁danced	-10.7401
▁beak	-10.7401
▁dense	-10.7413
▁crooked	-10.7414
▁slant	-10.7423
▁design	-10.7434
▁ho	-10.7446
▁gifts	-10.7456
▁chalk	-10.7469
iness	-10.7473
▁upright	-10.7484
▁silly	-10.7491
▁gap	-10.75
ble	-10.7509
▁hundreds	-10.7509
ar	-10.7513
▁lett	-10.7523
▁circling	-10.7526
▁carpet	-10.7527
▁social	-10.7537
▁crimson	-10.7544
cut	-10.7548
▁strand	-10.7551
▁dripping	-10.7552
▁insects	-10.7554
▁swallowed	-10.7557
▁offered	-10.7563
▁sheer	-10.7568
▁jail	-10.7568
▁alley	-10.7568
▁task	-10.7579
▁numb	-10.7583
▁desires	-10.7584
▁rolls	-10.7588
▁winters	-10.7589
▁pools	-10.7596
▁reality	-10.76
▁den	-10.7615
▁washing	-10.7615
▁allowed	-10.7619
▁aim	-10.7622
▁kissing	-10.7635
▁prayed	-10.7641
▁blocks	-10.7643
▁fading	-10.7644
▁promised	-10.7646
▁charm	-10.7648
▁display	-10.7661
▁mysterious	-10.7661
▁thro	-10.7666
▁frown	-10.7666
▁stove	-10.7678
▁rim	-10.7679
▁lemon	-10.7682
tangled	-10.7683
rushing	-10.7693
▁wasted	-10.7694
▁werent	-10.7701
▁reaches	-10.7701
▁port	-10.7704
▁bucket	-10.771
▁butterfly	-10.771
▁swamp	-10.7713
▁sunshine	-10.7713
▁glare	-10.7714
▁glimpse	-10.7715
▁wi	-10.7717
▁limb	-10.7719
▁husk	-10.7725
▁warn	-10.7726
▁palace	-10.7737
▁energy	-10.774
▁cows	-10.7748
▁rott	-10.7748
▁unable	-10.7749
ate	-10.7756
aged	-10.7758
▁haze	-10.776
▁aunt	-10.7763
than	-10.7768
▁vein	-10.7768
▁region	-10.7774
▁nations	-10.7782
▁cuts	-10.7796
▁alien	-10.7798
▁ours	-10.7805
▁realize	-10.7808
▁triumph	-10.7809
▁accident	-10.7817
love	-10.782
▁effort	-10.7826
▁obvious	-10.7829
▁safety	-10.7829
▁underground	-10.7831
▁sunny	-10.7833
▁intimate	-10.7834
blue	-10.7835
▁someones	-10.7837
▁disturb	-10.784
▁nod	-10.7853
▁blush	-10.7857
▁thorn	-10.7865
▁knot	-10.7866
▁touches	-10.7871
▁sap	-10.7874
▁snakes	-10.7896
▁anguish	-10.7898
▁envy	-10.7902
▁exile	-10.7907
▁grip	-10.7907
▁unfold	-10.7908
▁wires	-10.7909
▁silently	-10.7913
▁pepper	-10.7921
▁kin	-10.7922
▁fists	-10.7927
▁emptie	-10.7932
▁monster	-10.7941
▁humming	-10.7944
▁recent	-10.795
▁coral	-10.795
▁ripped	-10.7952
▁trapped	-10.7961
▁backyard	-10.7961
▁homes	-10.7968
▁stained	-10.7969
why	-10.7977
▁per	-10.7988
▁covers	-10.7989
losing	-10.799
▁grieve	-10.7992
▁guest	-10.7994
▁goddess	-10.7995
▁whils	-10.8004
▁inter	-10.8011
▁dish	-10.8013
▁willow	-10.8016
▁rear	-10.8023
▁gloves	-10.8033
▁decided	-10.8048
▁everybody	-10.8054
▁button	-10.8056
▁stern	-10.8057
▁desperate	-10.8058
▁strife	-10.8071
▁canyon	-10.8072
▁potatoes	-10.8074
legged	-10.8077
▁backward	-10.8079
▁dart	-10.8081
▁awkward	-10.8083
▁genius	-10.8083
▁plunge	-10.8083
▁signal	-10.8086
▁confused	-10.8092
▁peaceful	-10.8094
▁footsteps	-10.8095
▁tire	-10.8098
▁hip	-10.8099
▁created	-10.8103
▁madness	-10.8112
▁pop	-10.8126
▁certainly	-10.8129
▁mount	-10.813
▁borne	-10.8135
▁crisp	-10.8137
▁fragrant	-10.8144
▁dragon	-10.8154
▁globe	-10.8161
▁route	-10.8166
▁load	-10.817
▁vanish	-10.8173
▁remove	-10.8177
▁kindness	-10.8179
▁tissue	-10.8195
▁meal	-10.8197
▁aware	-10.821
▁fork	-10.8214
▁smear	-10.8219
fish	-10.8219
▁matters	-10.8222
▁complain	-10.8233
que	-10.8234
▁myth	-10.8235
▁sore	-10.8245
▁charge	-10.8246
▁dug	-10.8246
▁stepped	-10.8252
▁stuffed	-10.8252
▁throats	-10.8257
▁lamps	-10.8259
▁corpse	-10.8265
▁slim	-10.8269
▁coin	-10.8271
▁version	-10.828
▁meadows	-10.8282
▁purse	-10.8282
▁caves	-10.8297
▁unlike	-10.8298
▁lid	-10.8303
▁towns	-10.8305
▁attend	-10.831
▁extra	-10.8319
++++++++++++++++	-10.832
▁granite	-10.832
▁rains	-10.832
▁cancer	-10.8324
ty	-10.8326
▁folds	-10.833
▁ritual	-10.8331
▁brittle	-10.8331
▁boxes	-10.8335
▁afterward	-10.8336
▁follows	-10.8338
▁deal	-10.8339
▁rusty	-10.8346
▁bury	-10.8356
▁bored	-10.8367
▁fluttering	-10.8369
▁wither	-10.8371
▁random	-10.8378
▁grasp	-10.8384
▁putt	-10.8389
▁dresses	-10.8389
▁pit	-10.839
▁bench	-10.8392
▁channel	-10.8394
▁trumpet	-10.8399
▁bitch	-10.84
▁reads	-10.8406
▁bleed	-10.8409
▁slides	-10.841
▁bulb	-10.8413
▁cab	-10.8413
▁exchange	-10.8425
ning	-10.843
▁coil	-10.8433
▁newspaper	-10.8445
▁melancholy	-10.8446
▁undone	-10.8447
▁suicide	-10.8448
shone	-10.8449
▁hurts	-10.8451
▁ringing	-10.8454
air	-10.8456
▁gum	-10.8456
▁threshold	-10.8458
▁heavn	-10.8461
▁tulip	-10.8469
▁fellow	-10.8477
▁shelf	-10.8479
▁bigger	-10.848
▁fools	-10.8484
▁bending	-10.8491
▁candy	-10.8494
▁jaw	-10.8507
only	-10.8515
▁drain	-10.8524
▁polish	-10.8525
▁sunk	-10.8534
▁toes	-10.8535
▁exit	-10.8543
▁cart	-10.8545
glass	-10.8554
▁sum	-10.8556
well	-10.8556
about	-10.8558
because	-10.856
▁deeds	-10.857
▁flare	-10.8571
▁interior	-10.8573
▁negro	-10.8574
▁depth	-10.8575
▁hallway	-10.858
▁shrink	-10.8586
▁bible	-10.8586
▁remote	-10.8587
▁cheese	-10.8587
▁television	-10.8592
▁islands	-10.8593
▁proper	-10.8604
▁spoil	-10.8605
▁grapes	-10.8606
▁mention	-10.8613
▁reasons	-10.8616
▁packed	-10.8618
▁quit	-10.8619
▁leaned	-10.8627
▁attic	-10.8628
▁quiver	-10.8631
thy	-10.8634
▁drifts	-10.8654
▁lions	-10.8658
▁goat	-10.8665
▁sentence	-10.8666
▁widow	-10.8672
▁boot	-10.868
▁parade	-10.8681
▁crouch	-10.8694
▁masters	-10.8704
▁cliffs	-10.8704
▁northern	-10.8705
▁sinking	-10.8705
▁misery	-10.8712
▁hoping	-10.8727
▁prime	-10.8736
▁judgment	-10.8738
▁roofs	-10.8745
▁pinch	-10.8748
▁material	-10.8762
▁neer	-10.8766
▁tough	-10.8768
▁lime	-10.8771
▁gazing	-10.8785
▁pointing	-10.879
den	-10.8794
▁settled	-10.8795
▁mile	-10.8798
▁hides	-10.88
▁swallows	-10.8812
▁remained	-10.8822
▁streak	-10.8827
▁sucked	-10.8833
▁obscure	-10.8837
▁james	-10.8839
▁snap	-10.8841
▁evidence	-10.8848
▁argument	-10.885
▁flashing	-10.8867
▁ancestors	-10.8868
▁socks	-10.8891
▁december	-10.8893
▁tools	-10.8909
▁sullen	-10.8914
▁transparent	-10.8914
▁scars	-10.8915
▁settle	-10.892
▁shouting	-10.8926
▁dollars	-10.893
▁nerves	-10.8936
▁hears	-10.8938
here	-10.8941
▁joined	-10.8946
▁absent	-10.895
▁freeze	-10.8957
▁seeking	-10.8964
▁caress	-10.8964
▁chicago	-10.8969
▁lump	-10.897
▁anchor	-10.8973
▁coins	-10.8973
▁central	-10.8982
▁horns	-10.8983
▁claws	-10.8992
place	-10.9005
▁code	-10.9006
ned	-10.9011
▁blink	-10.9015
ium	-10.9015
▁earlie	-10.9017
▁blaze	-10.9018
▁temples	-10.9021
▁rank	-10.9025
▁original	-10.9032
▁scatter	-10.9033
▁terrifi	-10.9034
▁grateful	-10.9036
▁bind	-10.9039
▁substance	-10.9046
▁surf	-10.9049
▁showing	-10.905
▁toast	-10.9051
▁woven	-10.9052
tis	-10.9065
▁collar	-10.9065
▁dangl	-10.9067
▁buds	-10.9076
▁growth	-10.908
▁warning	-10.908
▁cord	-10.9082
▁rags	-10.9085
▁fabric	-10.9101
▁games	-10.9102
▁exact	-10.9103
▁shores	-10.9104
▁husbands	-10.9107
▁medicine	-10.9108
▁torch	-10.9111
▁guilty	-10.9121
▁seconds	-10.9123
▁reverse	-10.9126
▁deny	-10.9129
▁bolt	-10.9129
▁plenty	-10.914
▁attack	-10.9141
▁uncertain	-10.9141
▁lane	-10.9141
▁group	-10.9145
▁thrill	-10.9146
▁barefoot	-10.9149
▁stirr	-10.9152
▁muscles	-10.9152
▁blooms	-10.9157
son	-10.9158
▁linen	-10.9158
hood	-10.916
▁supper	-10.9162
▁conceal	-10.9163
▁sixty	-10.9163
▁eventually	-10.9164
▁tilt	-10.9178
▁acid	-10.9182
▁willing	-10.9183
▁melody	-10.9185
▁november	-10.9186
▁sideways	-10.9189
▁shifting	-10.9202
▁students	-10.9203
▁flute	-10.9207
▁mo	-10.921
▁powers	-10.9212
▁modern	-10.9221
ties	-10.9226
▁issue	-10.9231
▁van	-10.9232
▁stubborn	-10.9239
▁pilgrim	-10.9241
▁volume	-10.9241
▁slumber	-10.9241
▁retreat	-10.9241
▁pressure	-10.9242
▁royal	-10.9242
▁frighten	-10.9242
▁released	-10.9244
▁dishes	-10.9248
▁compare	-10.925
▁wandered	-10.9254
▁sails	-10.9255
▁fairy	-10.9259
▁disaster	-10.926
▁rescue	-10.9267
▁tucked	-10.9267
▁ro	-10.927
▁slender	-10.9273
▁boss	-10.9273
▁lots	-10.9279
▁team	-10.9285
▁lilac	-10.9286
▁fury	-10.9288
▁torment	-10.9295
▁slaughter	-10.9297
▁reward	-10.9297
▁soften	-10.9298
▁bubble	-10.9298
▁plus	-10.9299
▁mate	-10.93
▁drums	-10.9305
▁proof	-10.9307
▁piles	-10.9314
▁photographs	-10.9316
▁splinter	-10.9328
though	-10.9333
▁agree	-10.9337
▁reeds	-10.9337
▁boom	-10.9339
▁celebrate	-10.934
away	-10.9342
▁sage	-10.9349
▁possess	-10.9352
▁emerge	-10.9352
▁olive	-10.9352
▁crab	-10.9354
▁expected	-10.9355
▁melting	-10.936
▁shooting	-10.9369
▁disguise	-10.937
wise	-10.937
▁stepping	-10.9371
▁sweetly	-10.9372
▁shudder	-10.9373
▁beg	-10.9375
▁chaos	-10.9381
▁minor	-10.9381
▁italian	-10.9381
▁oclock	-10.9382
▁factory	-10.9384
▁bother	-10.9386
▁banner	-10.9386
▁butcher	-10.939
▁japanese	-10.9393
▁facing	-10.9394
hand	-10.9396
▁darkened	-10.9398
▁joe	-10.9405
▁canvas	-10.9411
self	-10.9412
▁process	-10.9415
▁household	-10.9418
▁crust	-10.9418
▁instrument	-10.9424
▁civil	-10.9436
▁descend	-10.9437
▁brains	-10.9437
▁stalks	-10.944
▁hue	-10.9441
▁swells	-10.9442
▁drill	-10.9443
grown	-10.9446
▁birch	-10.945
▁moral	-10.9451
▁crash	-10.9451
▁gloss	-10.9462
▁curls	-10.9463
▁zero	-10.9472
▁risen	-10.9475
▁scales	-10.9476
▁pound	-10.9485
▁habit	-10.9489
▁mint	-10.9491
▁sparrows	-10.9497
two	-10.9505
▁kinds	-10.9506
▁arrives	-10.9509
▁dock	-10.9509
▁mistress	-10.9511
ga	-10.9514
▁wa	-10.9517
▁swam	-10.9518
▁europe	-10.952
▁spear	-10.9522
room	-10.9525
▁sole	-10.9529
▁grin	-10.9533
▁jerk	-10.9534
▁swan	-10.9534
▁shrill	-10.9535
▁umbrella	-10.9535
da	-10.9542
▁absolute	-10.9544
▁maps	-10.9545
▁abstract	-10.9552
▁instance	-10.9553
▁armor	-10.9556
▁brightness	-10.9557
▁removed	-10.9565
▁arise	-10.9567
▁toilet	-10.9568
▁government	-10.9571
▁feeding	-10.9574
▁wretched	-10.9575
▁position	-10.9576
▁jane	-10.9578
▁pear	-10.9582
▁tempest	-10.9582
▁locks	-10.9584
ical	-10.9585
▁respect	-10.9587
▁structure	-10.9591
▁marvel	-10.9592
▁necessary	-10.9607
▁tense	-10.9609
▁tables	-10.961
▁gust	-10.9617
▁winding	-10.9623
▁debt	-10.9626
▁admire	-10.9642
▁valleys	-10.9644
▁tore	-10.9655
▁leak	-10.9661
▁crew	-10.9663
▁dump	-10.9664
▁laundry	-10.9664
▁cathedral	-10.9664
▁southern	-10.9664
▁rustling	-10.9665
▁permanent	-10.9665
▁cement	-10.9665
▁ticket	-10.9666
▁flows	-10.9667
▁meets	-10.9668
▁strikes	-10.9671
before	-10.9672
▁upstairs	-10.9673
▁shepherd	-10.9675
▁shaft	-10.9677
▁realm	-10.9681
ha	-10.9683
▁pane	-10.9684
▁reply	-10.9685
▁leading	-10.9685
▁suits	-10.9687
▁barrel	-10.9688
▁folk	-10.969
▁stronger	-10.9692
▁remembers	-10.9693
▁states	-10.9695
▁eagle	-10.9697
▁fifteen	-10.97
▁chief	-10.9701
▁barren	-10.9701
▁continues	-10.9703
did	-10.9704
▁shirts	-10.9709
▁smallest	-10.9718
worthy	-10.9719
▁cane	-10.972
▁piled	-10.9725
▁puzzle	-10.9725
▁decades	-10.9728
▁castle	-10.974
▁dozen	-10.9742
▁george	-10.975
▁shared	-10.9753
il	-10.9759
bed	-10.9761
▁hats	-10.9771
▁element	-10.9777
▁groan	-10.9778
▁elephant	-10.9784
▁doll	-10.9786
▁hushed	-10.979
▁deadly	-10.9792
▁surprised	-10.9798
▁luminous	-10.9798
▁rub	-10.9808
▁condition	-10.9808
▁furnace	-10.9809
▁tattoo	-10.9809
▁squint	-10.9811
▁threat	-10.9811
▁indians	-10.9811
▁species	-10.9814
▁subway	-10.9814
▁cluster	-10.982
▁pollen	-10.9823
▁spiders	-10.9826
▁legend	-10.9828
▁wan	-10.9833
▁winged	-10.9837
until	-10.9842
▁halls	-10.9842
▁powerful	-10.9843
▁rays	-10.9849
▁bruise	-10.9853
▁sins	-10.9853
▁toss	-10.9863
▁rang	-10.9866
▁seal	-10.9867
bound	-10.9867
▁sleek	-10.9871
▁agony	-10.9872
▁creeping	-10.9872
▁billow	-10.9874
bone	-10.9876
▁doom	-10.9882
▁machines	-10.9885
▁consciousness	-10.9893
▁flicker	-10.9904
▁ridge	-10.9908
▁piss	-10.9911
▁ankles	-10.9911
▁anne	-10.9915
▁atlantic	-10.992
foot	-10.9922
▁brood	-10.9927
▁doves	-10.993
▁sleeve	-10.9932
▁rattle	-10.9939
▁demand	-10.9943
▁closes	-10.9944
▁hoped	-10.9946
▁statue	-10.9946
▁fier	-10.995
▁guilt	-10.9952
▁accent	-10.9956
▁normal	-10.9957
▁france	-10.9959
▁hoof	-10.996
▁project	-10.9964
▁bushes	-10.9966
▁vacant	-10.997
▁garland	-10.9971
▁entrance	-10.9977
▁tend	-10.9979
▁prepared	-10.998
▁refused	-10.9992
▁brook	-10.9996
▁artist	-10.9997
box	-11.0003
shap	-11.0005
these	-11.0007
▁elbow	-11.0014
tree	-11.0017
▁adorn	-11.0022
▁curved	-11.0025
▁fences	-11.0027
▁extreme	-11.0029
▁favor	-11.0029
▁reader	-11.0029
▁rocking	-11.0031
▁drowning	-11.0032
▁sphere	-11.0039
▁ne	-11.0041
▁blaz	-11.0043
▁preserve	-11.0043
▁laurel	-11.0044
▁milky	-11.0051
▁movies	-11.0052
▁type	-11.0054
▁ascend	-11.0058
▁blackness	-11.0059
▁careless	-11.0061
▁erect	-11.0068
▁gutter	-11.0071
▁writes	-11.0076
▁captain	-11.0086
▁trucks	-11.0087
▁mill	-11.0095
▁happening	-11.0095
▁darker	-11.01
▁atmosphere	-11.0105
▁explode	-11.0105
▁restaurant	-11.0105
▁massive	-11.0107
▁ta	-11.0107
▁perfection	-11.0118
▁deserve	-11.0118
▁beggar	-11.0119
look	-11.0121
▁blacken	-11.0123
▁mirth	-11.0126
▁sub	-11.013
▁spreading	-11.0139
▁upside	-11.0139
▁stair	-11.0139
▁slipp	-11.0146
▁harsh	-11.0146
▁highest	-11.0151
▁necks	-11.0157
ley	-11.0158
▁coffin	-11.0163
lessness	-11.0167
▁beef	-11.0175
turned	-11.0176
▁tape	-11.0178
▁flickering	-11.0188
broken	-11.0191
ered	-11.0194
▁riddle	-11.0197
▁useful	-11.0198
▁abandon	-11.0207
▁obey	-11.0207
under	-11.0208
▁craft	-11.0209
▁super	-11.0209
▁scared	-11.0209
▁punch	-11.022
▁gon	-11.023
▁marching	-11.0233
▁actual	-11.0242
▁chew	-11.0243
▁generation	-11.0243
▁shove	-11.0245
▁fishing	-11.0245
▁scarlet	-11.0253
▁families	-11.0257
▁ecstasy	-11.0257
▁avail	-11.0257
▁alphabet	-11.0257
▁radiant	-11.0257
▁garbage	-11.0257
▁monday	-11.0257
▁friday	-11.0258
▁compass	-11.0259
▁fake	-11.026
▁drunken	-11.0261
muddy	-11.0263
▁friendly	-11.0267
▁fucking	-11.0268
▁pie	-11.0268
▁ok	-11.0269
▁pleas	-11.027
▁decision	-11.0271
▁imagining	-11.0273
▁handful	-11.0274
▁jaws	-11.0275
▁theater	-11.0276
▁logic	-11.028
▁inhabit	-11.0281
would	-11.0286
▁defeat	-11.0289
▁progress	-11.0292
▁repose	-11.0294
▁ideas	-11.0295
▁garage	-11.0296
▁counted	-11.0298
▁stalk	-11.0304
▁marsh	-11.0307
▁resting	-11.031
served	-11.031
▁mold	-11.0312
▁pearls	-11.0318
▁sustain	-11.0319
melted	-11.0321
▁crest	-11.0323
▁cellar	-11.0323
▁political	-11.0324
▁shown	-11.0325
▁workers	-11.0326
▁dwelling	-11.0333
▁grandmothers	-11.0339
▁tires	-11.0343
high	-11.0356
▁pressing	-11.036
▁mens	-11.0363
▁manner	-11.0363
▁jet	-11.0364
▁spike	-11.0365
▁yon	-11.0368
▁knocked	-11.0371
▁cloak	-11.0373
▁vow	-11.0375
▁tides	-11.0381
▁interest	-11.0381
▁paw	-11.0385
▁oka	-11.0403
▁whod	-11.0404
shirt	-11.0409
▁nineteen	-11.041
▁struggling	-11.0411
▁delicious	-11.0411
▁january	-11.0411
▁oblivion	-11.0412
▁lute	-11.0413
▁anti	-11.0418
▁mingle	-11.0419
▁russian	-11.0421
▁destiny	-11.0436
▁skeleton	-11.0437
▁ya	-11.0439
▁le	-11.0444
▁praying	-11.0446
▁chimney	-11.045
▁syllables	-11.0463
series	-11.047
▁snatch	-11.0471
▁hearth	-11.0475
▁discovered	-11.0488
▁startled	-11.0494
▁tales	-11.0494
▁haste	-11.0494
▁yawn	-11.0503
▁balm	-11.0503
▁wad	-11.0506
lier	-11.0506
haired	-11.0507
▁passionate	-11.0507
▁drives	-11.0511
▁po	-11.0516
▁understanding	-11.0518
▁culture	-11.0521
▁gang	-11.0522
▁lend	-11.0524
liest	-11.0529
▁sparrow	-11.053
▁sill	-11.0536
grass	-11.0538
▁torture	-11.0539
▁generations	-11.0544
▁asp	-11.055
▁grove	-11.055
▁rod	-11.0551
▁sniff	-11.0554
▁capture	-11.0556
▁dancers	-11.0564
▁howl	-11.0567
▁rilke	-11.0567
▁shopping	-11.0567
▁grease	-11.0568
▁surround	-11.0568
▁bough	-11.057
▁sunrise	-11.0571
▁swu	-11.0572
upon	-11.0574
▁sank	-11.0575
▁regard	-11.0577
▁shield	-11.0578
▁salvation	-11.0582
▁sow	-11.0583
▁hire	-11.0585
▁address	-11.0586
ard	-11.0587
▁cape	-11.0588
▁flapp	-11.0588
▁bled	-11.0593
▁parting	-11.0604
▁distress	-11.061
▁victory	-11.0614
▁pump	-11.0617
bye	-11.0621
▁nearby	-11.0621
▁grape	-11.0621
ho	-11.0623
▁novel	-11.0624
wind	-11.0625
ra	-11.0625
▁eden	-11.0629
ge	-11.063
▁robert	-11.0635
▁aloud	-11.0635
▁strung	-11.0635
▁lazy	-11.0636
▁swelling	-11.0642
▁backwards	-11.0645
▁drawer	-11.065
▁custom	-11.0656
ner	-11.0656
▁hive	-11.066
▁crawling	-11.0661
▁peer	-11.0665
▁messages	-11.0668
▁berries	-11.0669
▁gulls	-11.067
▁drone	-11.0674
▁repeated	-11.0682
▁pours	-11.0684
▁elder	-11.0697
▁flick	-11.0698
▁glistening	-11.07
deep	-11.0715
dded	-11.0718
▁pill	-11.0721
▁pacific	-11.0726
▁generous	-11.0726
▁fluid	-11.0726
▁leans	-11.0727
▁guests	-11.0735
▁instinct	-11.0736
▁picking	-11.0739
▁bundle	-11.0741
▁support	-11.0742
▁sober	-11.0742
▁according	-11.0742
▁college	-11.0745
▁yearning	-11.0745
▁blooming	-11.0747
▁du	-11.0761
▁surrender	-11.0764
▁vapor	-11.0767
▁staff	-11.0768
life	-11.0771
▁increase	-11.0772
ut	-11.0773
▁yea	-11.0777
▁harden	-11.0791
▁plough	-11.0793
▁pinned	-11.0794
▁wagon	-11.0795
▁monkey	-11.0797
▁howling	-11.0799
▁fired	-11.08
▁shiny	-11.0803
▁amazed	-11.0805
▁frank	-11.0807
▁serene	-11.0809
▁hunting	-11.0817
▁oaks	-11.0818
▁vessel	-11.0824
▁union	-11.0825
▁plume	-11.0829
▁leaping	-11.0832
▁loft	-11.0845
▁seventeen	-11.0847
set	-11.0856
▁groves	-11.0859
▁curs	-11.0859
▁jumped	-11.0867
▁slid	-11.0873
▁ropes	-11.0879
▁leaps	-11.0886
▁debris	-11.0887
▁antique	-11.0888
▁indifferent	-11.089
▁starry	-11.0898
▁flap	-11.0899
▁queer	-11.0899
▁sexual	-11.0903
▁covering	-11.0904
▁bo	-11.0909
▁suspended	-11.0914
▁wreath	-11.0918
between	-11.0924
▁crosses	-11.0924
nothing	-11.0927
▁pains	-11.0929
▁loosen	-11.0931
ro	-11.0933
▁peck	-11.0935
▁await	-11.0936
▁glue	-11.094
▁tar	-11.0948
▁switch	-11.0949
▁oyster	-11.0952
six	-11.0954
▁sport	-11.0956
▁monument	-11.0958
▁mock	-11.0965
▁absorb	-11.0966
▁shriek	-11.0971
ied	-11.0974
▁sirens	-11.0975
▁latin	-11.0978
▁sever	-11.0979
▁trailing	-11.0981
▁likely	-11.0984
▁disdain	-11.0988
▁spilled	-11.1002
▁planets	-11.1005
▁tom	-11.1008
▁broom	-11.1008
▁passions	-11.1009
▁sands	-11.1009
▁screams	-11.1011
▁robes	-11.1014
yard	-11.1017
▁wrists	-11.1027
▁robe	-11.1028
▁newly	-11.1032
knots	-11.1036
shouldnt	-11.1039
▁lantern	-11.1039
▁stems	-11.1042
▁fleet	-11.1048
▁marrow	-11.1051
▁shroud	-11.1051
▁henry	-11.1051
▁rosy	-11.1054
come	-11.1055
▁sonnet	-11.1058
▁tenderness	-11.1063
▁freely	-11.1065
▁bouquet	-11.1066
▁gradual	-11.1066
▁whistling	-11.1066
▁underwear	-11.1067
▁jealous	-11.1071
▁believing	-11.1072
▁hedge	-11.1075
▁toys	-11.1078
▁bodys	-11.1082
▁petal	-11.1083
▁gasp	-11.1083
▁inches	-11.109
▁gestures	-11.109
▁religion	-11.1093
▁stunned	-11.1093
▁realized	-11.1098
▁heal	-11.1112
▁fatal	-11.1117
▁rug	-11.1117
▁hymn	-11.1132
▁wonders	-11.1137
▁nameless	-11.1139
▁september	-11.1149
▁soar	-11.115
▁virtues	-11.1158
▁prim	-11.1158
▁caf	-11.1159
▁clasp	-11.1165
▁bower	-11.1166
▁sealed	-11.1166
▁outer	-11.1167
▁fountains	-11.1168
▁exists	-11.117
▁depart	-11.1175
▁moths	-11.1178
▁promises	-11.1202
say	-11.1203
▁jungle	-11.1206
▁africa	-11.1208
▁cigar	-11.1217
▁cunning	-11.1217
▁rubble	-11.1218
▁immense	-11.1219
▁mexico	-11.122
▁reign	-11.1224
▁breathless	-11.1225
▁title	-11.1229
▁brink	-11.1234
ny	-11.1234
▁cemetery	-11.1237
▁thorns	-11.1244
stone	-11.1253
▁empire	-11.1254
▁everlasting	-11.1258
▁eleven	-11.1261
▁hated	-11.1262
▁section	-11.1269
▁dolls	-11.127
▁childrens	-11.1282
▁fuel	-11.1284
▁jeans	-11.1289
▁sticky	-11.1291
▁spaces	-11.1292
▁yards	-11.1297
▁studied	-11.1299
▁afar	-11.1301
▁span	-11.1302
▁gut	-11.1311
▁pier	-11.1312
▁sweeping	-11.1314
town	-11.1317
▁brand	-11.1319
▁kicked	-11.132
without	-11.1323
▁received	-11.1326
▁yo	-11.133
▁chant	-11.1332
▁bridges	-11.1347
▁schools	-11.1348
▁scythe	-11.1362
▁si	-11.1362
▁se	-11.1364
▁lark	-11.1372
▁por	-11.1376
▁pursue	-11.1379
▁pet	-11.1382
▁national	-11.1386
▁sixteen	-11.1386
▁balloon	-11.1387
▁result	-11.1387
▁intricate	-11.1387
▁wrath	-11.1387
▁cottage	-11.1387
▁turkey	-11.1387
▁department	-11.1388
▁intelligence	-11.1388
▁balcony	-11.139
▁surge	-11.139
▁trap	-11.139
▁greed	-11.1392
▁blonde	-11.1393
shivering	-11.1394
▁peel	-11.14
▁rip	-11.14
▁labour	-11.1401
▁nerve	-11.1401
▁nevertheless	-11.1403
▁fray	-11.1403
▁rooster	-11.1407
▁violets	-11.1413
▁perish	-11.1414
▁enters	-11.1418
▁seats	-11.1419
▁occasion	-11.1425
▁maiden	-11.143
▁guts	-11.1431
▁prepare	-11.1436
▁companion	-11.1436
▁fingertips	-11.144
▁layers	-11.144
▁arrows	-11.1443
▁traveler	-11.1449
vory	-11.1452
ten	-11.1452
▁afford	-11.146
▁mould	-11.146
▁rotten	-11.1462
end	-11.1466
king	-11.1467
▁skirts	-11.1472
▁pretending	-11.1485
▁trod	-11.1487
▁planes	-11.1487
▁bunch	-11.1487
▁da	-11.1487
▁elm	-11.1487
▁cops	-11.1489
▁twigs	-11.1493
▁curb	-11.1495
▁sleeves	-11.1496
▁lad	-11.15
▁excuse	-11.15
▁tu	-11.1509
▁dances	-11.1509
half	-11.1513
▁clocks	-11.1513
▁throws	-11.1514
▁scrub	-11.1515
whose	-11.1515
▁approaching	-11.1516
tended	-11.1519
▁resist	-11.152
▁hopeless	-11.1522
▁casual	-11.1523
▁weaving	-11.1525
▁fetch	-11.1525
▁file	-11.1526
▁stares	-11.153
▁harp	-11.153
▁designed	-11.1534
▁elements	-11.1539
▁conscious	-11.1551
▁furrow	-11.1551
▁inherit	-11.1559
▁enemies	-11.156
▁observe	-11.1563
▁device	-11.1563
ping	-11.1567
▁rib	-11.1573
▁bellies	-11.1574
▁strive	-11.1575
▁decide	-11.1578
▁afternoons	-11.158
▁fearful	-11.1586
▁lyric	-11.1586
▁mend	-11.1586
▁dive	-11.1589
▁happi	-11.1593
▁someday	-11.1598
▁sip	-11.1599
▁chickens	-11.1599
▁satin	-11.1602
▁lawyer	-11.1605
▁shaken	-11.1607
▁illusion	-11.1608
▁buck	-11.1609
▁rail	-11.1613
▁fully	-11.1614
▁woo	-11.1626
▁cardboard	-11.1634
drawn	-11.1641
▁grade	-11.1642
▁mice	-11.1653
▁stirs	-11.1657
▁sweater	-11.1664
▁mar	-11.1664
▁dip	-11.1664
▁rides	-11.167
▁par	-11.1671
▁precise	-11.1675
▁dreamt	-11.1683
▁sift	-11.1685
▁clatter	-11.1692
▁vale	-11.1693
▁hut	-11.1693
▁pills	-11.1701
flakes	-11.1702
▁axe	-11.1711
▁guards	-11.1713
▁fling	-11.1714
dark	-11.1715
blown	-11.1715
brown	-11.1717
dy	-11.1717
▁deeply	-11.1718
top	-11.1725
▁beaten	-11.1728
▁wondrous	-11.1735
▁railroad	-11.1735
▁taut	-11.1735
▁humid	-11.1736
▁blest	-11.1737
▁sheen	-11.1739
▁begging	-11.174
▁shouts	-11.1744
hooves	-11.1744
▁ben	-11.1748
ta	-11.175
▁blunt	-11.1752
▁buttons	-11.1752
▁irish	-11.1762
▁painful	-11.1765
▁tub	-11.1767
▁adore	-11.177
▁clover	-11.1776
▁student	-11.1784
▁detail	-11.1784
▁directions	-11.1786
▁streaming	-11.1787
▁fer	-11.1797
▁stroll	-11.1804
▁protest	-11.1819
▁patterns	-11.1824
▁dot	-11.1835
▁blurred	-11.1837
▁sickness	-11.1839
▁whiskey	-11.184
▁semi	-11.1843
▁fore	-11.1846
▁dash	-11.1847
▁replace	-11.1847
▁terms	-11.1847
▁booth	-11.1854
till	-11.1858
▁disappearing	-11.1862
▁caused	-11.1865
▁hem	-11.1868
▁landing	-11.187
▁whip	-11.1871
▁scenes	-11.1875
▁fro	-11.1881
▁sprout	-11.1887
▁lakes	-11.1892
sweet	-11.1894
▁brushed	-11.1896
▁harder	-11.1897
▁snowy	-11.1901
▁pa	-11.1901
▁weird	-11.1902
▁dial	-11.1907
▁ignore	-11.1908
▁conquer	-11.191
▁script	-11.191
▁evry	-11.1913
▁vice	-11.1914
▁venus	-11.1914
▁jim	-11.1914
▁martyr	-11.1915
▁lush	-11.1915
▁rumor	-11.1918
▁driveway	-11.192
▁corpses	-11.1921
together	-11.1924
▁desolate	-11.1929
▁mission	-11.193
eer	-11.1934
▁invention	-11.1935
▁shovel	-11.1938
drift	-11.1942
▁repair	-11.1942
▁airport	-11.1953
▁spreads	-11.1954
▁skip	-11.1955
▁gulf	-11.1957
▁holiday	-11.1961
▁stark	-11.1968
▁alike	-11.197
▁quivering	-11.1973
▁continued	-11.1975
field	-11.1982
▁stake	-11.1983
▁blinking	-11.1988
▁twisting	-11.1989
▁murmuring	-11.1991
▁fret	-11.1992
▁columns	-11.1992
▁boards	-11.1994
▁cursed	-11.1994
▁drinks	-11.2
▁coats	-11.2
▁aching	-11.2001
▁modest	-11.2001
▁wholl	-11.2002
▁ashamed	-11.2007
mo	-11.2008
▁added	-11.2015
▁renew	-11.202
▁folding	-11.2022
▁vanishing	-11.2022
▁stores	-11.2023
▁eats	-11.2026
▁heron	-11.2028
▁crave	-11.203
▁awhile	-11.2033
▁seize	-11.2035
▁divided	-11.2044
nine	-11.2045
▁orders	-11.2049
▁boast	-11.205
▁smelled	-11.205
▁destroyed	-11.2057
▁pierce	-11.2058
▁claims	-11.2058
has	-11.2059
▁threaten	-11.2066
ors	-11.207
▁effect	-11.2073
once	-11.208
▁bubbles	-11.2088
▁yr	-11.2088
▁geese	-11.2095
▁thump	-11.2095
▁slab	-11.2096
▁replied	-11.2096
▁abyss	-11.2097
▁impulse	-11.2097
▁soot	-11.2099
▁limit	-11.21
▁sends	-11.21
sailed	-11.2102
▁neon	-11.2108
▁advice	-11.2112
▁syrup	-11.2112
iest	-11.2114
looking	-11.2121
▁crickets	-11.2122
▁visions	-11.2122
▁parties	-11.2124
▁statues	-11.2125
onder	-11.2126
▁cheerful	-11.2126
▁swords	-11.2128
▁verb	-11.2129
▁ducks	-11.2131
j	-11.2134
▁maze	-11.2138
▁pebbles	-11.2139
▁slack	-11.2142
▁santa	-11.2142
▁naught	-11.2142
▁circumstance	-11.2142
▁visual	-11.2146
▁polite	-11.2146
▁shrine	-11.2148
▁murmurs	-11.2149
▁friendship	-11.215
▁mystic	-11.2151
▁wipe	-11.2154
▁pigs	-11.2154
▁ankle	-11.2161
▁downward	-11.2165
▁tails	-11.2165
▁froth	-11.217
et	-11.2179
▁overflow	-11.2188
ill	-11.2192
mon	-11.2193
▁choir	-11.2196
had	-11.2197
▁affection	-11.2198
▁selling	-11.2206
▁digging	-11.2207
▁envelope	-11.2209
▁floods	-11.2214
ible	-11.2226
▁risk	-11.2228
▁stitch	-11.2233
▁goal	-11.2235
▁fruits	-11.2236
▁tempt	-11.2238
▁strewn	-11.2239
▁driver	-11.2242
▁humans	-11.2242
▁author	-11.2246
▁falcon	-11.225
▁vows	-11.2251
▁mutter	-11.2267
▁panic	-11.2267
▁bombs	-11.2273
▁gallop	-11.2273
▁moist	-11.2274
▁lately	-11.228
▁neglect	-11.228
▁explosion	-11.228
▁liquor	-11.228
▁celestial	-11.228
▁kettle	-11.228
▁mattress	-11.228
▁sprung	-11.228
▁ginger	-11.2281
▁terrace	-11.2281
▁tug	-11.2283
▁weekend	-11.2283
▁fiddle	-11.2285
▁cash	-11.2287
apped	-11.2288
▁tube	-11.2288
▁tops	-11.2292
▁dollar	-11.2293
▁jazz	-11.2298
▁perspective	-11.2298
▁radiance	-11.2298
▁lavender	-11.2298
▁entertain	-11.2299
▁goose	-11.2302
▁scrape	-11.2302
▁flashes	-11.2318
▁brutal	-11.2322
ions	-11.2326
▁diminish	-11.2329
▁develop	-11.233
▁uniform	-11.2336
▁christian	-11.2337
▁skulls	-11.2337
▁player	-11.2338
▁taxi	-11.234
▁aloft	-11.2349
could	-11.2349
four	-11.2352
▁rustle	-11.2355
▁los	-11.2355
▁descending	-11.2355
▁belongs	-11.2357
▁dizzy	-11.236
▁u	-11.2362
weed	-11.2366
▁urge	-11.2368
▁outward	-11.2369
▁loom	-11.2373
▁waken	-11.2379
▁anothers	-11.2381
▁glove	-11.2383
▁pots	-11.2384
▁prisoners	-11.2389
catching	-11.239
▁meek	-11.2391
▁vault	-11.2392
▁swings	-11.24
▁advance	-11.2405
▁gale	-11.2406
▁screamed	-11.2407
der	-11.241
▁flourish	-11.2413
▁disgust	-11.2425
fire	-11.2427
ville	-11.2431
▁peter	-11.2434
ir	-11.2435
▁spotted	-11.2436
▁paws	-11.244
▁elbows	-11.2444
▁log	-11.2444
▁elephants	-11.2448
▁cloudy	-11.2451
▁carcass	-11.2464
▁squeeze	-11.2467
▁eighteen	-11.2469
▁attitude	-11.2469
▁appetite	-11.2469
▁nymph	-11.2469
▁nightingale	-11.2469
▁arrival	-11.2469
▁burial	-11.2469
▁lullaby	-11.2469
▁baseball	-11.2469
▁continuous	-11.247
▁handsome	-11.2472
▁butterflies	-11.2474
▁skinny	-11.2474
▁parallel	-11.2475
▁character	-11.2475
▁cabin	-11.2476
▁heroes	-11.2481
▁devotion	-11.2482
▁stale	-11.2483
▁bands	-11.2483
▁tuesday	-11.2487
▁confusion	-11.2487
▁gorgeous	-11.2488
▁lure	-11.2488
▁sucking	-11.2488
▁narrative	-11.2488
▁nurses	-11.2489
▁graveyard	-11.249
▁crowned	-11.2508
▁planned	-11.2508
▁bean	-11.251
▁briefly	-11.2511
▁vase	-11.2512
▁nectar	-11.2518
▁cherish	-11.2519
▁defend	-11.2521
▁sleepy	-11.2523
▁helen	-11.2543
▁rid	-11.2546
▁magazine	-11.2549
▁warp	-11.2552
▁rapture	-11.2553
▁squat	-11.2554
▁paul	-11.2554
▁wrench	-11.2557
▁wishing	-11.2557
▁sublime	-11.2558
▁healing	-11.257
▁hairs	-11.2578
▁inspire	-11.2583
hot	-11.2584
▁tasted	-11.2597
▁serpent	-11.2611
▁parted	-11.2611
▁wedge	-11.2612
▁formal	-11.2615
▁canal	-11.2617
▁arts	-11.2619
▁tank	-11.262
▁slap	-11.2622
▁gathers	-11.2622
▁awaken	-11.2634
▁glid	-11.2641
les	-11.2644
▁pipes	-11.2645
▁millions	-11.2655
▁total	-11.2655
▁reed	-11.266
▁strict	-11.2661
▁gossip	-11.2661
▁mississippi	-11.2661
▁plaster	-11.2662
▁rigid	-11.2662
▁destruction	-11.2662
▁throng	-11.2662
▁regular	-11.2664
▁announce	-11.2665
▁relentless	-11.2668
▁rests	-11.267
▁flown	-11.2678
▁wrinkle	-11.2679
▁condemn	-11.268
▁absurd	-11.268
▁shawl	-11.268
▁worri	-11.2681
▁plow	-11.2682
▁required	-11.2695
▁tunes	-11.2698
▁failing	-11.2698
▁slate	-11.2701
▁waterfall	-11.2703
▁secure	-11.271
▁thief	-11.2711
▁ambition	-11.2713
▁nigh	-11.2713
▁acres	-11.2716
▁awe	-11.272
▁credit	-11.2722
▁tan	-11.2728
▁insect	-11.2728
▁charming	-11.2732
▁rake	-11.2734
▁loaded	-11.2741
▁currents	-11.2743
▁towel	-11.2746
▁mournful	-11.2753
▁tattered	-11.2754
latest	-11.2758
▁heel	-11.2763
▁ghostly	-11.2764
▁rinse	-11.2765
ery	-11.2766
▁lee	-11.2769
▁razor	-11.2773
▁chatter	-11.2777
▁wrinkled	-11.2786
▁claimed	-11.2796
▁dye	-11.2803
ries	-11.2812
▁formed	-11.2822
▁ch	-11.2826
▁jewels	-11.283
morrow	-11.2838
▁arranged	-11.2839
▁possibl	-11.2839
▁whales	-11.2844
▁clearing	-11.2847
▁bump	-11.285
▁fig	-11.2853
▁intense	-11.2853
▁grab	-11.2854
lly	-11.2854
▁cannon	-11.2855
▁bamboo	-11.2857
nought	-11.2857
▁boston	-11.2857
▁bleak	-11.2858
▁sensation	-11.2858
information	-11.2859
▁furious	-11.2861
▁eclipse	-11.2863
▁flaming	-11.2867
acious	-11.2867
held	-11.2867
▁leapt	-11.287
▁wicked	-11.2875
▁prospect	-11.2876
▁sparkling	-11.2877
▁riot	-11.2877
▁wallet	-11.2877
▁miniature	-11.2877
▁graceful	-11.2878
face	-11.2882
▁sewing	-11.2897
▁smashed	-11.2899
▁facts	-11.29
ad	-11.2904
▁launch	-11.2905
▁divide	-11.2907
▁engines	-11.2908
▁lincoln	-11.2909
▁harmony	-11.2909
▁video	-11.2909
▁produce	-11.2909
▁contract	-11.291
▁bicycle	-11.2915
▁limits	-11.2916
▁eighty	-11.2916
▁revolution	-11.2917
▁tossing	-11.2923
▁drying	-11.2924
▁halo	-11.2927
▁sneak	-11.2935
▁organ	-11.2936
▁ham	-11.2939
▁represent	-11.294
▁fifth	-11.2942
▁anxious	-11.2943
▁ivy	-11.2947
▁tangle	-11.2954
▁lighter	-11.2954
▁events	-11.2956
▁gull	-11.2956
▁barbed	-11.2956
▁plans	-11.296
▁fa	-11.2962
▁scratched	-11.2964
▁william	-11.2965
▁sometime	-11.2968
▁rubbed	-11.2974
▁major	-11.2975
▁sorrows	-11.2978
▁greas	-11.2979
▁dreamer	-11.2979
▁pigeon	-11.298
▁feeds	-11.298
▁humanity	-11.299
▁spice	-11.2996
▁poetic	-11.3006
▁hi	-11.3006
▁clown	-11.301
birds	-11.301
ma	-11.3013
▁mexican	-11.3014
▁guys	-11.3018
▁pall	-11.3021
▁di	-11.3035
too	-11.3036
three	-11.3037
▁hissing	-11.3042
▁lilacs	-11.3044
▁crowds	-11.3047
▁bills	-11.3051
▁goats	-11.3057
▁survival	-11.3057
▁stew	-11.3058
▁costume	-11.3058
▁impatient	-11.3059
▁football	-11.306
▁tumult	-11.3062
▁notebook	-11.3062
ability	-11.3062
▁severe	-11.3063
▁onions	-11.3065
▁forbidden	-11.3068
▁motionless	-11.3069
▁thicket	-11.3072
▁elegant	-11.3076
▁drought	-11.3077
▁charms	-11.3077
▁bugle	-11.3081
fall	-11.3082
▁snapped	-11.3085
▁diamonds	-11.3092
▁demon	-11.3093
▁cop	-11.3094
▁que	-11.3094
said	-11.3095
▁constantly	-11.3099
▁dr	-11.31
ol	-11.3101
▁offering	-11.3101
▁knocking	-11.3106
▁complex	-11.3106
▁flour	-11.3109
▁response	-11.311
▁ignorance	-11.311
▁hatred	-11.3112
▁rippl	-11.3113
▁pins	-11.3114
▁clap	-11.3124
cooked	-11.3126
▁portion	-11.3128
open	-11.3128
▁owls	-11.3129
▁betray	-11.3134
▁ox	-11.3134
▁traces	-11.3135
▁buzz	-11.3135
hearted	-11.3136
▁rattl	-11.3139
▁virginia	-11.3139
▁military	-11.3144
▁expensive	-11.3144
▁pregnant	-11.3144
▁printed	-11.3149
▁rais	-11.3156
▁homeless	-11.3157
▁paus	-11.3163
fly	-11.3164
▁breathes	-11.3164
lung	-11.317
▁balanced	-11.3171
▁expression	-11.3174
▁widen	-11.3176
▁consequence	-11.3178
▁charles	-11.3178
▁drench	-11.3183
▁tragic	-11.3198
▁starve	-11.32
▁trails	-11.3205
▁battered	-11.3205
lapping	-11.3205
▁oldest	-11.3207
▁stirring	-11.3208
▁whiteness	-11.3208
▁invite	-11.3215
▁hark	-11.3217
each	-11.3235
▁exquisite	-11.3246
▁pounds	-11.325
▁vigil	-11.3256
▁elizabeth	-11.326
▁manhattan	-11.3262
▁philosopher	-11.3262
▁poplar	-11.3262
▁splendor	-11.3262
▁fingernail	-11.3262
▁torso	-11.3262
▁discuss	-11.3264
▁vowel	-11.3264
▁talent	-11.3265
▁collection	-11.3266
▁halfway	-11.3269
▁silken	-11.327
▁entering	-11.3273
▁bathe	-11.3273
▁sofa	-11.3276
▁filthy	-11.3276
▁framed	-11.3278
▁michael	-11.3281
▁crumbling	-11.3281
▁locust	-11.3282
▁spade	-11.3282
▁girlfriend	-11.3282
▁nets	-11.3282
▁newspapers	-11.3284
▁ward	-11.3287
may	-11.3292
▁thieves	-11.3293
▁hunched	-11.3293
▁fern	-11.3294
▁pro	-11.3296
▁mole	-11.3302
▁resolve	-11.3303
▁offers	-11.3305
▁pillows	-11.3309
▁sauce	-11.3309
▁rue	-11.3312
▁tame	-11.3314
▁trout	-11.3315
▁freezing	-11.3315
world	-11.3316
▁believes	-11.3318
▁babe	-11.3322
▁showers	-11.3327
ca	-11.333
▁african	-11.3333
▁forsake	-11.3334
▁aid	-11.3341
shine	-11.3344
▁trim	-11.3344
▁parked	-11.3344
▁mat	-11.3347
▁maintain	-11.3348
▁crease	-11.3351
▁murdered	-11.3353
ists	-11.3356
▁fe	-11.3363
▁pulp	-11.3367
▁spots	-11.3369
▁concern	-11.3376
▁fir	-11.3379
▁lull	-11.3379
gone	-11.338
▁translation	-11.3382
▁sweeter	-11.3383
▁mars	-11.3383
▁fourteen	-11.3384
▁chisel	-11.3385
▁bike	-11.3391
▁salute	-11.34
▁rights	-11.3403
worn	-11.3407
▁drip	-11.3412
gy	-11.3414
▁bug	-11.3416
▁array	-11.342
ster	-11.342
▁temper	-11.3431
▁spills	-11.3438
▁borders	-11.3444
▁shepherds	-11.3448
▁shifts	-11.3448
▁considered	-11.3448
▁possessed	-11.3459
brush	-11.3467
▁mast	-11.3469
▁thursday	-11.347
▁intact	-11.347
▁conscience	-11.347
▁striking	-11.347
▁ignorant	-11.347
▁alert	-11.347
▁scarf	-11.3471
▁vanity	-11.3472
▁folly	-11.3472
▁tomatoes	-11.3474
▁reject	-11.3475
▁thyself	-11.3478
▁mistaken	-11.3479
▁flea	-11.3479
▁hillside	-11.3483
▁sighing	-11.3485
▁twig	-11.3485
▁windshield	-11.349
▁easier	-11.3491
▁grinn	-11.3494
▁strands	-11.3495
▁suggest	-11.3496
▁stamp	-11.3501
▁urn	-11.3503
▁offend	-11.3512
▁parch	-11.3522
▁hooks	-11.3523
▁crumbs	-11.3524
▁blond	-11.3525
▁washington	-11.3525
▁seventy	-11.3526
▁interesting	-11.3528
▁buffalo	-11.3533
shot	-11.3534
escaped	-11.3559
▁professor	-11.356
▁pat	-11.3564
▁tray	-11.3565
▁satisfied	-11.3565
▁frogs	-11.3565
▁princess	-11.3567
▁sounded	-11.3568
▁slipper	-11.3576
▁wid	-11.3581
▁scraps	-11.3585
▁eaves	-11.3586
▁com	-11.3588
▁fringe	-11.3588
▁chart	-11.3593
tell	-11.3594
▁platform	-11.3598
giving	-11.3601
▁sleepless	-11.3606
▁corridor	-11.3607
▁victim	-11.3607
▁sly	-11.3617
lids	-11.3617
▁writ	-11.3617
▁singer	-11.3618
▁individual	-11.3627
▁pal	-11.3656
▁thicken	-11.3658
▁et	-11.366
▁masks	-11.3661
handed	-11.3661
▁sew	-11.3664
▁universal	-11.3665
▁shoots	-11.3666
▁expos	-11.3667
▁bass	-11.3669
ee	-11.3671
▁plump	-11.3674
actions	-11.3678
▁armed	-11.3681
▁jest	-11.3682
▁emerald	-11.3683
▁stomp	-11.3683
▁donkey	-11.3683
▁anonymous	-11.3683
▁departure	-11.3683
▁procession	-11.3683
▁singular	-11.3684
▁earnest	-11.3685
▁hither	-11.3685
▁mankind	-11.3687
▁roast	-11.3687
▁texas	-11.369
▁forgiveness	-11.3693
▁nois	-11.3693
▁forlorn	-11.3695
▁stumbling	-11.3699
▁silhouette	-11.3703
▁miraculous	-11.3703
▁splendid	-11.3703
▁settling	-11.3703
▁mister	-11.3708
▁musical	-11.3708
▁clot	-11.371
▁hates	-11.371
fold	-11.3711
▁snare	-11.372
▁render	-11.3725
▁prevent	-11.3725
▁tint	-11.3729
law	-11.373
▁term	-11.3731
▁cypress	-11.3731
▁photos	-11.3734
▁dat	-11.3735
▁shakespeare	-11.3736
▁seldom	-11.3738
▁clang	-11.3743
▁fans	-11.3745
▁penis	-11.3746
▁ether	-11.3751
▁resemble	-11.3751
▁herbs	-11.3754
▁monks	-11.3759
▁watery	-11.3759
▁argue	-11.376
▁pang	-11.3766
▁knuckles	-11.3768
try	-11.3768
first	-11.3769
▁repeating	-11.3771
▁swirl	-11.3774
dont	-11.3774
▁blackbird	-11.3775
▁specific	-11.3775
around	-11.3778
▁blend	-11.3778
▁devils	-11.3779
▁flake	-11.378
▁calendar	-11.3786
▁mental	-11.3786
▁lurch	-11.3791
▁nam	-11.3793
ile	-11.3794
▁bait	-11.3806
▁brows	-11.3809
io	-11.3812
▁clench	-11.3812
piece	-11.3814
▁brim	-11.3817
▁disgrace	-11.3818
▁verses	-11.3818
▁orphan	-11.3818
▁riches	-11.3823
▁litter	-11.3832
▁strokes	-11.3838
▁details	-11.384
eye	-11.3841
▁characters	-11.3842
▁conceive	-11.3848
▁ledge	-11.3848
▁fo	-11.3849
▁languages	-11.385
▁tricks	-11.385
▁fails	-11.3856
▁iris	-11.3857
▁capital	-11.3862
▁continent	-11.3876
▁fright	-11.3876
▁speck	-11.3877
ey	-11.3877
▁stopp	-11.3879
▁opera	-11.389
▁throb	-11.3892
▁plague	-11.3892
▁calf	-11.3895
▁essence	-11.39
▁practical	-11.39
▁committee	-11.39
▁monstro	-11.39
▁tether	-11.39
▁possibility	-11.39
▁harry	-11.3901
▁buddha	-11.3901
▁hounds	-11.3901
▁destination	-11.3901
▁oven	-11.3901
▁cabinet	-11.3902
▁charity	-11.3903
▁sieve	-11.3904
▁estate	-11.3904
▁weakness	-11.3905
▁starlight	-11.3906
▁crumpled	-11.3908
▁lovd	-11.3908
▁static	-11.3909
▁hummingbird	-11.391
▁newborn	-11.3913
▁downtown	-11.3915
▁smother	-11.3917
▁daffodil	-11.3921
▁spiritual	-11.3921
▁distinguish	-11.3921
▁texture	-11.3921
▁beautie	-11.3924
▁kills	-11.3924
▁slain	-11.3934
▁medi	-11.3938
▁pose	-11.3939
▁soda	-11.3941
▁politics	-11.3945
▁wiped	-11.395
▁magical	-11.3951
▁shadowy	-11.3956
▁profit	-11.3959
▁dissolving	-11.3959
▁pant	-11.3964
▁sale	-11.3965
▁blankets	-11.397
▁whine	-11.3971
▁counts	-11.3971
▁ebb	-11.3973
▁slash	-11.3974
▁sidewalks	-11.3978
winged	-11.3979
seven	-11.3987
▁brute	-11.3988
▁apron	-11.3989
▁emperor	-11.3991
▁stump	-11.3992
ire	-11.3992
▁grit	-11.3996
▁mule	-11.3998
▁casting	-11.3998
lo	-11.4001
▁dusky	-11.4003
▁tumble	-11.4006
▁rapid	-11.4009
▁equally	-11.401
▁hunters	-11.4013
▁slic	-11.4022
gray	-11.4024
▁slit	-11.4035
proof	-11.4039
▁slump	-11.4042
itude	-11.4045
▁draft	-11.4046
eight	-11.4048
▁sweeps	-11.4052
▁thaw	-11.4056
▁decline	-11.4056
ding	-11.406
▁peak	-11.4061
wa	-11.4062
▁unconscious	-11.4065
right	-11.4073
▁orbit	-11.4073
stacks	-11.4074
▁rider	-11.4076
▁peoples	-11.4076
▁lifetime	-11.4082
▁hose	-11.4082
▁stains	-11.409
▁smack	-11.4091
▁zone	-11.4091
▁attached	-11.4093
▁spheres	-11.4096
▁vest	-11.4102
▁instruments	-11.4105
▁kindle	-11.4106
▁onward	-11.4107
▁lament	-11.4109
▁chips	-11.411
▁glen	-11.4118
▁waved	-11.4121
▁crescent	-11.4122
▁salmon	-11.4122
▁triangle	-11.4123
▁influence	-11.4124
▁oval	-11.4124
▁ohio	-11.4125
▁success	-11.4125
▁sobbing	-11.4125
▁bleeds	-11.4126
▁hurried	-11.413
▁alongside	-11.413
▁identity	-11.4131
▁standard	-11.4131
▁melon	-11.4132
▁unborn	-11.4132
▁centre	-11.4135
▁buckle	-11.4136
▁patches	-11.4137
bird	-11.414
▁slippery	-11.4141
▁lettuce	-11.4143
▁dimension	-11.4145
▁zoo	-11.4158
▁voyage	-11.4159
▁exercise	-11.416
▁lyre	-11.4162
▁steer	-11.4163
▁trigger	-11.4165
▁origin	-11.4166
▁scissors	-11.4171
▁uncles	-11.4179
▁religious	-11.418
▁shack	-11.418
▁swiftly	-11.4184
▁surrounding	-11.4184
▁miracles	-11.4184
▁anew	-11.4189
▁sp	-11.4197
▁grunt	-11.4218
▁drug	-11.4219
▁necklace	-11.422
▁saddle	-11.4223
▁lipstick	-11.4224
▁unhapp	-11.423
▁bandage	-11.423
▁escapes	-11.424
▁maker	-11.4243
▁chewing	-11.4244
▁assume	-11.425
kin	-11.4253
▁hound	-11.4255
▁sales	-11.4262
▁gazed	-11.427
▁wherein	-11.4277
▁tribe	-11.4278
▁knott	-11.4281
▁weightless	-11.4283
▁beans	-11.4283
▁records	-11.4287
silver	-11.4288
those	-11.429
▁cable	-11.4298
biting	-11.4304
▁bi	-11.4305
▁shred	-11.4311
▁tag	-11.4316
▁gild	-11.4323
▁mimic	-11.4323
▁mesh	-11.4326
▁twine	-11.4326
▁scraped	-11.4336
▁etc	-11.4341
▁potato	-11.4344
▁gnaw	-11.4345
▁persist	-11.4346
▁ferry	-11.4349
▁neighbour	-11.4349
▁tobacco	-11.435
▁translucent	-11.435
▁labyrinth	-11.435
▁principle	-11.435
▁monarch	-11.435
▁kitten	-11.435
▁cactus	-11.435
▁discard	-11.435
▁egyptian	-11.435
▁cripple	-11.435
▁computer	-11.435
▁clever	-11.435
▁insane	-11.4351
▁negative	-11.4351
▁marvelous	-11.4352
▁gotten	-11.4353
▁lashes	-11.4353
▁basin	-11.4356
▁gush	-11.4358
▁flashlight	-11.4358
▁musk	-11.4359
▁bugs	-11.4359
▁splayed	-11.436
▁grocery	-11.436
▁melts	-11.4366
▁sandwich	-11.4366
▁glacier	-11.4368
▁huddled	-11.4368
▁copy	-11.437
▁hug	-11.437
peaks	-11.4371
rushed	-11.4371
▁spy	-11.4373
▁challenge	-11.4376
▁heartbeat	-11.438
▁reap	-11.4381
filled	-11.4383
▁erased	-11.4387
▁fort	-11.4387
▁solo	-11.439
▁staying	-11.4391
▁mall	-11.4394
▁bade	-11.4396
▁tease	-11.4399
▁buzzing	-11.44
▁nostrils	-11.44
▁declare	-11.4401
▁views	-11.4402
▁despise	-11.4403
▁bows	-11.4407
▁dazzling	-11.4409
▁fleeting	-11.441
▁affect	-11.4414
▁pounding	-11.4422
▁penny	-11.4422
make	-11.4425
▁rusted	-11.4428
▁joint	-11.4431
▁rainy	-11.4436
▁sailors	-11.4436
▁features	-11.4438
▁killer	-11.4441
▁hurricane	-11.4447
▁similar	-11.4448
▁pyramid	-11.4451
▁proved	-11.4455
▁forgets	-11.4457
▁hooked	-11.4461
▁stately	-11.4462
ball	-11.4465
▁prisoner	-11.4467
▁brit	-11.4471
▁dared	-11.4476
▁goodness	-11.4477
war	-11.4481
▁visited	-11.4482
▁creak	-11.4488
▁spins	-11.4489
▁garments	-11.4496
▁drained	-11.4498
▁hint	-11.4503
▁horribl	-11.4509
▁nightmare	-11.4513
▁chambers	-11.4515
▁persons	-11.4516
▁hairy	-11.4517
▁scheme	-11.4521
▁reckon	-11.4526
▁suspect	-11.4531
▁site	-11.4533
▁prompt	-11.4535
▁idiot	-11.4536
▁beckon	-11.4541
▁helmet	-11.4542
▁scrawl	-11.4545
thought	-11.4557
against	-11.4565
▁refuge	-11.4566
▁sighed	-11.4568
▁shark	-11.4569
▁require	-11.4569
om	-11.4571
▁teaching	-11.4579
sis	-11.458
▁cabbage	-11.4582
▁knelt	-11.4582
▁majesty	-11.4582
▁spruce	-11.4582
▁rubbing	-11.4582
▁tyrant	-11.4582
▁captive	-11.4582
▁trance	-11.4582
▁descent	-11.4584
▁johnson	-11.4584
▁cowboy	-11.4585
▁glorie	-11.4585
▁necessity	-11.4586
▁trumpets	-11.4587
▁frantic	-11.4591
▁brighten	-11.4592
▁solar	-11.4593
▁area	-11.4595
▁redden	-11.4596
▁plank	-11.4596
▁willows	-11.4598
hole	-11.4598
▁clamor	-11.4599
▁coarse	-11.4601
▁bloomed	-11.4602
▁math	-11.4602
▁privac	-11.4604
▁peasant	-11.4605
▁vivid	-11.4607
▁greedy	-11.4607
▁metallic	-11.461
▁restore	-11.4611
every	-11.4631
▁flank	-11.4632
liness	-11.4633
▁salad	-11.4635
▁league	-11.4639
▁trembles	-11.4641
▁vital	-11.4646
▁apparently	-11.465
▁chemical	-11.4654
saw	-11.4661
▁tourists	-11.4664
▁jew	-11.4666
▁scrap	-11.4669
▁safely	-11.4672
▁lays	-11.4675
▁cleared	-11.4679
▁cushion	-11.4683
▁gulp	-11.4683
▁teachers	-11.4684
▁violin	-11.4685
▁bred	-11.4686
▁composed	-11.4689
▁queens	-11.4691
▁rabbits	-11.4694
▁siren	-11.4695
▁wanton	-11.4697
▁saving	-11.4699
▁curves	-11.4703
such	-11.4706
▁degrees	-11.4711
▁jews	-11.4711
▁poles	-11.4717
▁dancer	-11.4724
▁snug	-11.4727
▁junk	-11.4729
agging	-11.4732
▁gall	-11.4737
▁seeming	-11.4738
▁parks	-11.4738
ite	-11.4738
ray	-11.4744
▁perform	-11.4747
full	-11.4748
▁degree	-11.4752
▁clothing	-11.4757
▁grandma	-11.4762
▁security	-11.4767
ified	-11.4771
▁jumping	-11.4771
▁adam	-11.4775
▁respond	-11.4776
▁grate	-11.4779
▁peep	-11.4785
breathed	-11.479
▁preferr	-11.479
▁susan	-11.4793
▁thumbs	-11.4793
▁rejoice	-11.4793
▁fades	-11.4794
▁lingering	-11.4797
tumbling	-11.4802
mes	-11.482
▁anxiety	-11.482
▁champagne	-11.482
▁fugitive	-11.482
▁sequence	-11.482
▁community	-11.482
▁exotic	-11.482
▁clarity	-11.482
▁resistance	-11.4821
▁landlord	-11.4821
▁bruis	-11.4821
▁lens	-11.4822
▁urgent	-11.4822
▁pursuit	-11.4823
▁gospel	-11.4824
▁including	-11.4824
▁picnic	-11.4825
▁seaweed	-11.4826
▁outstretched	-11.4827
▁snarl	-11.4828
▁jade	-11.4828
▁comfortable	-11.4831
▁abroad	-11.4832
century	-11.4832
▁monsters	-11.4836
▁stall	-11.4838
▁gladness	-11.4839
▁thorough	-11.4843
▁applause	-11.4843
▁survey	-11.4843
▁reckless	-11.4843
▁excess	-11.4844
▁wildly	-11.4844
▁louis	-11.4844
▁flowering	-11.4846
▁tour	-11.4847
▁citizens	-11.4851
▁likeness	-11.4852
▁lords	-11.4852
▁grabbed	-11.4853
▁crep	-11.4853
hi	-11.4856
▁charged	-11.4856
▁bobbing	-11.486
▁swims	-11.486
▁role	-11.4869
▁wren	-11.4875
▁butt	-11.4876
▁foundation	-11.4876
▁pierced	-11.4879
▁remembrance	-11.4883
▁rafter	-11.4885
▁peering	-11.4886
▁yeah	-11.4888
▁muses	-11.4889
▁fishes	-11.4893
▁doomed	-11.4902
▁recite	-11.4911
▁sweeten	-11.4912
▁cookie	-11.4915
▁papa	-11.4918
▁gripp	-11.4919
▁yoke	-11.4927
▁sponge	-11.4927
▁ladders	-11.4928
edged	-11.4941
▁drows	-11.4955
▁puddle	-11.4956
▁beautys	-11.4957
▁secretly	-11.4964
▁employ	-11.4976
flower	-11.4977
▁ken	-11.4978
▁grains	-11.498
▁instruct	-11.4985
▁tanks	-11.4987
▁humor	-11.4988
▁baskets	-11.4989
▁pois	-11.499
step	-11.4992
▁sa	-11.4995
▁rails	-11.5002
▁coach	-11.5007
god	-11.5008
▁bowls	-11.501
▁stab	-11.5014
tan	-11.5018
▁function	-11.5028
▁ripples	-11.5028
▁screw	-11.5029
sound	-11.5033
▁dots	-11.5036
▁wits	-11.5041
▁descends	-11.5044
▁citys	-11.5045
▁destin	-11.5045
▁shops	-11.5048
warm	-11.5051
▁consume	-11.5053
▁porc	-11.5054
▁jokes	-11.5054
▁settles	-11.5056
▁rack	-11.506
▁counsel	-11.506
▁convey	-11.5061
▁period	-11.5063
▁ca	-11.5064
wolves	-11.5064
▁abide	-11.5064
▁alumin	-11.5064
▁incense	-11.5064
▁philosophy	-11.5064
▁shrunk	-11.5064
▁architecture	-11.5064
▁beatrice	-11.5064
▁construction	-11.5065
▁cruelty	-11.5065
▁courtyard	-11.5066
▁daisies	-11.5066
▁dung	-11.5068
▁sweetheart	-11.5072
▁roadside	-11.5074
▁drama	-11.5077
▁observ	-11.5078
waiting	-11.5078
▁david	-11.5081
▁til	-11.5082
▁fits	-11.5084
star	-11.5085
▁rushes	-11.5085
▁vacuum	-11.5087
▁tragedy	-11.5087
▁wednesday	-11.5087
▁canopy	-11.5087
▁ridiculous	-11.5087
▁brooklyn	-11.5087
▁bastard	-11.5087
▁aspire	-11.5088
▁transport	-11.5088
▁carpenter	-11.5088
▁sob	-11.509
▁liver	-11.509
elain	-11.5095
▁ark	-11.5099
stairs	-11.51
take	-11.5102
▁gauze	-11.5105
▁mound	-11.5118
thing	-11.5119
▁sam	-11.512
▁rate	-11.5121
making	-11.5122
again	-11.5122
▁spat	-11.5125
▁peeling	-11.5127
▁twirl	-11.5128
▁shoal	-11.513
rous	-11.5131
▁stripes	-11.5135
▁pomp	-11.5135
▁stagger	-11.5136
▁lambs	-11.5145
▁outline	-11.5147
▁continual	-11.5148
▁countless	-11.5149
▁owe	-11.5153
▁charr	-11.5155
▁tunnels	-11.5159
rmies	-11.5162
▁blindness	-11.5163
▁sculpture	-11.5168
▁hoist	-11.5172
▁amount	-11.5174
▁county	-11.5178
▁crop	-11.5182
ize	-11.5183
▁warrior	-11.5184
▁writers	-11.5186
▁surfaces	-11.5187
▁flex	-11.5192
lock	-11.5194
▁preach	-11.5194
▁trickle	-11.5204
▁righteous	-11.521
▁february	-11.5212
▁piercing	-11.5212
▁+	-11.5212
▁senseless	-11.5214
▁rained	-11.5215
▁boiled	-11.5217
▁nothingness	-11.5221
▁heights	-11.5225
▁billy	-11.5226
▁crib	-11.5228
▁purchase	-11.5233
▁remark	-11.5236
paying	-11.5236
▁winning	-11.5236
▁badly	-11.5238
▁distances	-11.5239
▁clums	-11.5239
shall	-11.5239
trees	-11.5251
▁hits	-11.5256
▁shelves	-11.5256
▁rhymes	-11.527
neck	-11.5271
▁fried	-11.5272
▁wayne	-11.5275
▁sincere	-11.528
▁motor	-11.528
▁whin	-11.5281
▁reek	-11.5282
aging	-11.5288
▁filter	-11.529
▁crook	-11.5292
▁lung	-11.5292
▁habits	-11.5295
▁filth	-11.5297
▁bin	-11.5297
▁freed	-11.5297
▁pardon	-11.5297
never	-11.5304
▁romantic	-11.5305
▁trench	-11.5311
▁carnival	-11.5314
▁contact	-11.5314
▁imperial	-11.5314
▁jersey	-11.5314
▁azure	-11.5314
▁inevitable	-11.5314
▁remnant	-11.5314
▁boredom	-11.5315
▁turf	-11.5315
▁countries	-11.5315
▁nickel	-11.5315
▁swore	-11.5315
▁extinction	-11.5315
▁cramp	-11.5317
▁jelly	-11.5317
▁electricity	-11.5318
▁stutter	-11.5318
▁headlights	-11.5318
▁ego	-11.5319
▁gallery	-11.5319
▁harmless	-11.5322
▁resembles	-11.5323
▁unexpected	-11.5323
▁dice	-11.5326
▁insult	-11.5328
▁youthful	-11.533
▁enchanted	-11.5331
▁tranquil	-11.5331
▁pebble	-11.5334
▁obscene	-11.5338
▁situation	-11.5338
▁nakedness	-11.5341
▁blight	-11.5343
▁tumbled	-11.5344
▁crowns	-11.5345
song	-11.5346
▁musician	-11.5349
▁ruby	-11.5352
▁official	-11.5353
▁mare	-11.5356
▁scant	-11.5358
▁weapon	-11.5364
▁suburbs	-11.5367
▁lengthen	-11.5369
▁signature	-11.538
▁unusual	-11.538
▁lava	-11.538
▁hawks	-11.5381
▁arriving	-11.5381
rose	-11.5384
▁pad	-11.5385
hard	-11.5386
▁thud	-11.5386
▁mustard	-11.5388
▁jam	-11.5389
▁rooted	-11.5391
▁glimmer	-11.5393
▁baked	-11.5396
berries	-11.5397
▁epic	-11.5397
▁sounding	-11.54
▁systems	-11.5405
ural	-11.5408
▁enable	-11.5408
people	-11.5415
bright	-11.5416
▁deed	-11.5417
per	-11.5418
smoke	-11.5419
▁swimmer	-11.5424
▁convince	-11.5424
dead	-11.5425
▁parlor	-11.5426
▁hinges	-11.5426
▁romance	-11.5431
▁trans	-11.5432
▁boulders	-11.5433
▁unaware	-11.5433
thou	-11.5437
▁smudge	-11.5438
▁thrive	-11.544
ii	-11.5443
▁frames	-11.5444
▁mounds	-11.5449
▁mob	-11.5451
coming	-11.5451
▁partner	-11.5452
▁explanation	-11.5456
▁rebel	-11.5457
▁fucked	-11.5459
▁recognized	-11.5462
▁swans	-11.5464
▁corrupt	-11.5467
▁barbar	-11.5471
skinn	-11.5472
▁swoop	-11.5474
▁sparkle	-11.5474
point	-11.5479
▁hump	-11.548
▁layer	-11.5484
▁crude	-11.5485
▁tones	-11.5492
properly	-11.5509
▁relax	-11.5514
▁active	-11.5518
▁draped	-11.5518
▁banish	-11.552
▁burrow	-11.5525
▁brine	-11.5528
▁aye	-11.5529
▁taper	-11.5529
▁strains	-11.553
▁manners	-11.5532
▁tiles	-11.5532
▁fain	-11.5533
▁caps	-11.5538
▁flip	-11.5541
▁acknowledge	-11.5548
▁occur	-11.5548
▁beetle	-11.5552
▁gracious	-11.5553
▁scarred	-11.5554
▁woes	-11.5555
▁mechanic	-11.5555
▁perpetual	-11.5556
sea	-11.5564
▁racing	-11.5565
▁pee	-11.5565
▁convert	-11.557
▁fragrance	-11.557
▁luxury	-11.557
▁starving	-11.557
▁lichen	-11.5571
▁suitcase	-11.5571
▁civilization	-11.5571
▁denied	-11.5571
▁depression	-11.5571
▁crackling	-11.5573
▁shotgun	-11.5573
▁mentioned	-11.5574
▁sentences	-11.5575
▁glazed	-11.5576
▁shady	-11.5576
▁steed	-11.5576
▁background	-11.5579
▁immediately	-11.5579
▁rocket	-11.558
▁intention	-11.5581
going	-11.5586
boy	-11.5586
ana	-11.5587
▁untouched	-11.5587
▁powr	-11.5588
▁reserve	-11.5588
▁refugee	-11.5588
▁seam	-11.5589
▁scold	-11.559
▁ideal	-11.5591
▁pilot	-11.5591
▁beware	-11.5592
▁link	-11.5593
▁cicada	-11.5595
▁profile	-11.5595
▁earthquake	-11.5595
▁poke	-11.5597
▁pennies	-11.5597
▁cricket	-11.56
ane	-11.5602
▁symbol	-11.5605
▁madam	-11.5613
▁erase	-11.5613
boring	-11.5619
▁tile	-11.562
▁agreed	-11.5621
▁loyal	-11.5623
▁fare	-11.5631
▁chaste	-11.5633
▁memorial	-11.5634
▁reflecting	-11.5637
▁lesser	-11.5641
▁twins	-11.5643
▁thrush	-11.5649
angles	-11.5654
▁lodge	-11.5656
▁nipples	-11.5661
▁gar	-11.5664
pa	-11.5669
▁blinds	-11.5677
▁lance	-11.5677
▁register	-11.5682
jo	-11.5682
▁iridescent	-11.5682
▁sufficient	-11.5683
▁dining	-11.5687
▁seventh	-11.5687
▁weighed	-11.5699
fare	-11.5702
cold	-11.5702
▁seams	-11.5706
▁robin	-11.5706
▁mansion	-11.5707
cloth	-11.5711
▁graz	-11.5714
struck	-11.5715
▁requires	-11.5718
▁pirate	-11.5718
▁noises	-11.572
called	-11.5721
▁joyful	-11.5723
▁elevator	-11.5726
▁scraping	-11.5729
▁nuts	-11.5731
ent	-11.5738
▁irony	-11.5741
▁entry	-11.5753
▁product	-11.576
▁feeble	-11.5761
▁recover	-11.5765
past	-11.5766
▁interested	-11.5767
▁pears	-11.5767
▁dazzle	-11.5768
▁laying	-11.5781
▁connect	-11.5794
▁hop	-11.5797
licking	-11.5799
▁fatigue	-11.5806
▁bubbl	-11.5807
▁cleft	-11.5808
▁hunter	-11.5809
▁wintr	-11.5818
▁thru	-11.5819
▁retire	-11.5826
▁include	-11.5826
▁jug	-11.5827
▁timber	-11.5834
▁privilege	-11.5834
▁gasoline	-11.5834
▁infinity	-11.5834
▁myriad	-11.5834
▁migration	-11.5834
▁mysteries	-11.5834
▁whither	-11.5834
▁mushroom	-11.5834
▁repetition	-11.5834
▁nodding	-11.5834
▁chopped	-11.5835
▁tropical	-11.5835
▁punishment	-11.5835
▁boyfriend	-11.5835
▁dante	-11.5836
▁blake	-11.5837
▁heroic	-11.5837
▁dagger	-11.5837
▁stubble	-11.5838
▁windowsill	-11.5838
▁helps	-11.5841
▁physical	-11.5841
▁asia	-11.5843
▁throbbing	-11.5844
▁graze	-11.5849
▁pelt	-11.585
ide	-11.585
▁awoke	-11.5851
▁discern	-11.5851
▁pry	-11.5857
▁ultimate	-11.5859
▁merchant	-11.5859
▁society	-11.586
▁escaping	-11.5861
▁stitched	-11.5862
▁emerg	-11.5862
▁summit	-11.5865
▁glanc	-11.5872
▁stretche	-11.5875
▁cupped	-11.5876
▁shredd	-11.5882
▁babys	-11.5886
▁softness	-11.5889
▁spires	-11.5892
▁dunes	-11.5897
▁prophet	-11.5901
▁handkerchief	-11.5903
▁pulsing	-11.5903
▁dismay	-11.5903
▁chasing	-11.5903
▁usher	-11.5907
▁sinew	-11.5908
▁peeled	-11.5912
▁grandfathers	-11.5915
ons	-11.5915
▁survived	-11.5917
▁peek	-11.5919
ore	-11.5928
tail	-11.5931
eur	-11.5933
▁lurk	-11.5933
▁pitcher	-11.5941
▁bra	-11.5944
▁tuck	-11.5945
dry	-11.5946
▁stench	-11.5948
▁ninety	-11.5949
▁loll	-11.5953
▁engineer	-11.5953
▁sights	-11.5954
▁keel	-11.5955
▁lanes	-11.5955
▁misty	-11.5956
▁stable	-11.596
▁smash	-11.5967
▁aspect	-11.5971
book	-11.5973
▁unfinish	-11.5976
▁raven	-11.5978
▁joints	-11.5985
shape	-11.5985
▁nap	-11.5985
▁thistle	-11.5987
▁pail	-11.5996
▁earned	-11.5997
▁everyones	-11.5998
▁parent	-11.5998
▁vegetable	-11.5999
lot	-11.5999
▁grid	-11.6004
▁freight	-11.6011
▁bout	-11.6012
▁breed	-11.6012
▁drugs	-11.6012
▁carve	-11.6018
▁dressing	-11.6025
▁sprinkle	-11.6025
▁effects	-11.6026
▁correct	-11.6027
▁fu	-11.6027
▁balloons	-11.6033
▁gross	-11.6033
view	-11.6035
▁dangle	-11.6035
▁quot	-11.6035
▁elms	-11.6036
▁essential	-11.604
cast	-11.6042
▁flit	-11.6046
▁dime	-11.6046
▁twitch	-11.6049
▁searched	-11.605
hu	-11.6053
▁scoop	-11.6054
▁mu	-11.6058
times	-11.6059
▁betrayed	-11.606
▁orb	-11.6077
▁career	-11.6078
▁pensive	-11.6087
▁remorse	-11.6087
▁method	-11.6091
▁repent	-11.6102
▁poise	-11.6103
▁marking	-11.6103
▁thirteen	-11.6103
▁blizzard	-11.6104
▁circus	-11.6104
▁opaque	-11.6104
▁sausage	-11.6104
▁territory	-11.6104
▁multitude	-11.6104
▁bargain	-11.6104
▁refusing	-11.6104
▁mirage	-11.6104
▁limestone	-11.6104
▁access	-11.6105
▁hoarse	-11.6106
▁divorce	-11.6106
▁immortality	-11.6108
dates	-11.6111
▁fra	-11.6112
arctic	-11.6113
▁remaining	-11.6114
▁darts	-11.6119
▁bony	-11.612
▁disappears	-11.6121
ped	-11.6123
▁dreadful	-11.6123
▁nailed	-11.6123
▁merit	-11.6123
▁tomato	-11.6124
▁concert	-11.6125
▁mower	-11.6126
▁succeed	-11.613
▁immigrant	-11.613
▁buckets	-11.613
▁heavily	-11.613
▁gallant	-11.613
▁del	-11.6131
▁paste	-11.6134
▁graces	-11.6137
▁bitten	-11.6138
▁prop	-11.6139
▁quicken	-11.6142
▁dawns	-11.6143
▁cha	-11.6143
▁heave	-11.6143
▁heir	-11.6145
▁perceive	-11.6149
▁critic	-11.6151
▁fleck	-11.6171
▁unkind	-11.6172
bet	-11.6172
▁mermaid	-11.6175
▁obtain	-11.6175
▁steadi	-11.6178
▁torrent	-11.6179
▁tool	-11.6179
▁hull	-11.6182
▁leaking	-11.6186
▁shuddering	-11.6189
▁nick	-11.6189
mother	-11.6193
▁growl	-11.6194
▁admired	-11.6196
▁visitors	-11.6197
▁bog	-11.6197
▁travels	-11.6197
▁maples	-11.6199
che	-11.6199
▁thence	-11.621
ck	-11.6212
▁hues	-11.6217
▁hurled	-11.6219
▁tastes	-11.6221
▁clicking	-11.6222
▁constellations	-11.6222
▁oars	-11.6226
▁ann	-11.6227
▁triple	-11.6228
▁caged	-11.6228
told	-11.6234
▁forge	-11.6237
▁lent	-11.6239
mates	-11.6241
▁whipp	-11.6243
▁hack	-11.6244
▁warriors	-11.6247
▁trial	-11.6248
▁trunks	-11.6249
▁squirrel	-11.6251
▁boulder	-11.6252
▁explained	-11.6253
▁strut	-11.6265
tion	-11.6267
▁scribble	-11.6268
▁scotch	-11.6269
▁farms	-11.6269
▁revelation	-11.6269
▁ni	-11.627
▁tax	-11.6272
▁proceed	-11.6286
▁een	-11.6286
state	-11.6289
▁writer	-11.6297
▁magnet	-11.6298
▁tombs	-11.6305
ber	-11.6305
▁salty	-11.6308
▁request	-11.6311
iv	-11.6312
see	-11.6316
▁blouse	-11.6316
▁airy	-11.6316
▁chestnut	-11.6318
▁blister	-11.6322
▁basic	-11.6323
etched	-11.6326
▁troubles	-11.6327
▁crawls	-11.6327
▁encounter	-11.6331
▁dun	-11.6335
▁comic	-11.6349
▁orchestra	-11.635
free	-11.635
▁seals	-11.6352
above	-11.6355
▁fleece	-11.6357
▁damage	-11.6357
good	-11.6357
▁crumble	-11.6358
▁problems	-11.637
▁tilted	-11.6376
▁capable	-11.6378
▁banquet	-11.6378
▁quaint	-11.638
taller	-11.6381
▁galaxy	-11.6382
▁membrane	-11.6382
▁wrung	-11.6382
▁sprang	-11.6382
▁resembl	-11.6382
▁cherries	-11.6382
▁leisure	-11.6382
▁bulk	-11.6382
▁cheat	-11.6382
▁motel	-11.6383
▁pizza	-11.6383
▁urban	-11.6383
▁playground	-11.6383
▁whitman	-11.6383
▁poppies	-11.6383
▁collective	-11.6384
▁tiptoe	-11.6385
▁authority	-11.6385
▁sensual	-11.6386
▁embarrassed	-11.6388
▁soaring	-11.6388
▁oxygen	-11.6389
▁walter	-11.6389
▁fable	-11.6392
▁profound	-11.6392
▁lining	-11.6396
▁scrubbed	-11.6399
▁groove	-11.64
▁stations	-11.64
▁fin	-11.64
▁satan	-11.64
▁index	-11.6403
▁beetles	-11.6403
forming	-11.6406
▁supreme	-11.6408
▁caesar	-11.6408
▁identical	-11.6408
▁vinegar	-11.6408
▁magnificent	-11.6408
▁expert	-11.6409
▁ecstatic	-11.6409
▁dignity	-11.641
▁multiple	-11.6411
▁bleached	-11.6412
▁beaks	-11.6419
▁pac	-11.6423
▁eyebrows	-11.6428
▁busted	-11.643
▁instructions	-11.643
▁scorched	-11.643
▁straighten	-11.6431
▁undo	-11.6432
▁swirling	-11.6439
▁wy	-11.6443
li	-11.6449
▁naturally	-11.6451
▁members	-11.6454
▁survivor	-11.6455
▁molten	-11.6455
▁sorts	-11.6466
▁sh	-11.6466
▁spells	-11.6467
▁stockings	-11.6469
▁wha	-11.6471
▁discipline	-11.6474
▁joyous	-11.6477
thus	-11.648
▁shun	-11.6485
▁evn	-11.6497
▁wove	-11.65
▁bleach	-11.6501
▁abundance	-11.6505
▁expand	-11.6506
▁passengers	-11.6511
▁itch	-11.6512
▁lab	-11.6514
▁contains	-11.6519
berry	-11.6519
▁cancel	-11.6522
▁anybody	-11.6532
▁gained	-11.6537
▁crater	-11.6539
▁eternally	-11.6544
▁snail	-11.6546
▁fortunes	-11.6549
▁officer	-11.6549
▁weapons	-11.6553
▁sheds	-11.6554
▁victims	-11.6555
▁existed	-11.6558
▁americans	-11.657
▁painter	-11.657
▁organs	-11.657
footed	-11.6576
▁chained	-11.6582
covered	-11.6587
▁soothe	-11.6594
▁snowflake	-11.6602
▁files	-11.6602
▁target	-11.6607
mark	-11.6608
▁spines	-11.6611
▁demands	-11.6612
▁hearse	-11.6613
▁swoon	-11.6613
▁tighten	-11.6614
▁ra	-11.6617
▁brushing	-11.6617
▁fossil	-11.662
▁scorch	-11.662
▁isle	-11.6631
▁earn	-11.6634
▁fins	-11.6635
▁nourish	-11.6646
▁olives	-11.6648
▁dipped	-11.6648
hair	-11.665
▁beings	-11.6654
▁cords	-11.6654
▁mop	-11.6656
▁clerk	-11.6658
▁citizen	-11.6658
▁cracking	-11.666
▁tipped	-11.666
▁flirt	-11.6664
▁chariot	-11.6667
▁lacquer	-11.6667
▁peculiar	-11.6667
▁refrain	-11.6667
▁revenge	-11.6667
▁excellent	-11.6667
▁flint	-11.6667
▁quarrel	-11.6667
▁steadfast	-11.6667
▁temperature	-11.6667
▁carving	-11.6667
▁sermon	-11.6667
▁chasm	-11.6667
▁malice	-11.6668
▁almond	-11.6668
▁diving	-11.6668
▁relic	-11.6668
▁farthe	-11.6668
▁cocktail	-11.6668
▁disappointment	-11.6668
▁boundary	-11.667
▁robinson	-11.667
blood	-11.6671
▁protection	-11.6672
▁onion	-11.6672
▁quest	-11.6674
days	-11.6674
▁unclean	-11.6675
▁bloat	-11.6675
▁ceaseless	-11.6676
▁diet	-11.6676
▁cakes	-11.6678
mus	-11.6678
▁hideous	-11.6678
▁shrug	-11.6679
tes	-11.668
▁occurred	-11.6681
▁charges	-11.6681
▁noose	-11.6683
▁hen	-11.6684
everything	-11.6688
maybe	-11.6688
▁heav	-11.6691
▁cain	-11.6692
▁foliage	-11.6695
▁expanse	-11.6695
▁previous	-11.6695
▁heavier	-11.6695
▁gratitude	-11.6695
bare	-11.6697
▁lodged	-11.6698
▁jagg	-11.6698
▁assumed	-11.6701
▁alter	-11.6703
▁shards	-11.6707
▁flattened	-11.6709
▁logs	-11.6709
▁wiser	-11.671
▁overnight	-11.6711
▁highlight	-11.6723
▁wo	-11.6724
▁pans	-11.6729
▁greeks	-11.673
▁pupils	-11.6734
▁leash	-11.6737
ov	-11.6739
▁flavor	-11.6741
▁slapped	-11.6743
▁chances	-11.6743
▁happily	-11.6745
▁chrome	-11.6746
▁intend	-11.6747
▁mason	-11.6748
▁ceased	-11.6751
▁illness	-11.6751
children	-11.676
▁reduced	-11.676
ups	-11.6767
▁landed	-11.6772
▁hammers	-11.6778
▁coiled	-11.6782
nes	-11.6784
▁bond	-11.6789
▁compose	-11.6789
▁pairs	-11.679
▁scratching	-11.6791
▁carriage	-11.6792
▁interval	-11.6792
▁emotion	-11.6792
▁attain	-11.6794
ade	-11.6794
▁unfolding	-11.6799
▁slam	-11.6806
gs	-11.681
sky	-11.6815
▁slink	-11.6815
ot	-11.6816
▁confession	-11.6821
ice	-11.6826
▁sheath	-11.6828
▁nude	-11.6828
iron	-11.6828
▁nightmares	-11.683
▁squares	-11.6831
precisely	-11.6833
▁tribes	-11.6834
▁defense	-11.6845
▁rounded	-11.6846
▁arose	-11.685
shed	-11.6851
▁speckle	-11.6852
▁hon	-11.6856
▁ripple	-11.6868
▁circuit	-11.6884
▁doe	-11.6889
▁hymns	-11.6896
▁vii	-11.6899
▁veils	-11.6899
▁glows	-11.6899
▁wreaths	-11.6904
▁spits	-11.6905
▁adjust	-11.6908
▁column	-11.6908
▁arrest	-11.6911
▁vomit	-11.6917
▁ordered	-11.6922
bbed	-11.6926
▁artists	-11.6926
▁prints	-11.6926
▁pi	-11.6933
▁rocked	-11.6937
▁stag	-11.6937
▁bruises	-11.6945
ipping	-11.6945
▁sadly	-11.6953
▁hinge	-11.6953
▁snows	-11.6953
skew	-11.6954
▁gear	-11.6957
▁oar	-11.6959
▁vex	-11.696
▁behavior	-11.6962
▁democracy	-11.6962
▁pistol	-11.6962
▁souvenir	-11.6962
▁sympathy	-11.6962
▁vulgar	-11.6962
▁terminal	-11.6962
▁vehicle	-11.6962
▁francisco	-11.6962
▁paintings	-11.6962
▁permission	-11.6962
▁purity	-11.6962
▁arabic	-11.6963
▁clung	-11.6963
▁giddy	-11.6963
▁unearth	-11.6963
▁guessed	-11.6964
▁recess	-11.6965
▁machinery	-11.6968
▁breach	-11.6968
▁cosmos	-11.6968
▁holly	-11.6968
▁tracing	-11.6968
ang	-11.6968
▁begged	-11.6969
▁literally	-11.6971
▁boundaries	-11.6972
▁whirr	-11.6973
▁underfoot	-11.6973
▁vertical	-11.6974
▁occasionally	-11.6975
▁gaud	-11.6977
▁limited	-11.6978
▁signals	-11.6979
ened	-11.6979
▁chipped	-11.6982
▁bon	-11.6982
▁leftover	-11.6983
▁heading	-11.6983
▁startle	-11.6985
▁childish	-11.6985
▁pathway	-11.6987
▁proclaim	-11.6988
▁woodland	-11.6988
▁buying	-11.6989
▁clump	-11.699
▁fissure	-11.699
▁pomegranate	-11.699
▁satisfaction	-11.699
▁flaring	-11.699
▁suffice	-11.699
▁measur	-11.6991
▁amazing	-11.6992
▁flail	-11.6992
▁absolutely	-11.6992
thoma	-11.6994
▁beech	-11.6998
▁afloat	-11.6999
▁losses	-11.7001
▁harlem	-11.7002
wire	-11.7002
▁preacher	-11.7002
▁flocks	-11.7006
▁ties	-11.7015
▁creaking	-11.7017
▁footprints	-11.7018
ich	-11.702
▁overcome	-11.7026
▁gloomy	-11.7027
▁pledge	-11.7027
▁battles	-11.7028
▁streetlight	-11.7033
▁ver	-11.7035
parents	-11.7036
theyre	-11.7037
▁owner	-11.7039
▁eyelash	-11.704
▁wherefore	-11.7042
▁disable	-11.7049
same	-11.7049
▁sped	-11.7055
▁tents	-11.7056
▁softer	-11.7057
▁trousers	-11.7061
ave	-11.7063
▁odds	-11.7063
▁described	-11.7064
▁carbon	-11.7065
▁boundless	-11.7071
▁muffl	-11.7071
▁longed	-11.7073
▁aisles	-11.7074
▁fleeing	-11.7078
▁crashed	-11.7081
▁spoons	-11.7081
▁slay	-11.7085
▁licks	-11.7089
▁greeting	-11.7089
▁comprehend	-11.709
▁cuckoo	-11.709
▁dutch	-11.709
▁cube	-11.7097
▁ant	-11.7098
▁hopeful	-11.7106
▁ignored	-11.7106
▁glaze	-11.7111
got	-11.7112
▁blithe	-11.712
▁rape	-11.7124
▁squirrels	-11.713
▁beaute	-11.7133
▁sunflower	-11.7139
▁towels	-11.7142
▁sketch	-11.7147
▁whore	-11.7151
▁cone	-11.7162
▁tramp	-11.7172
▁apollo	-11.7178
em	-11.7179
▁drivers	-11.718
▁ape	-11.718
ware	-11.7184
▁hir	-11.7189
▁bites	-11.7192
▁alexander	-11.7193
ure	-11.7193
▁reminded	-11.7194
▁brooks	-11.7195
▁lucid	-11.7195
▁fiction	-11.7205
▁lore	-11.7211
▁banana	-11.7212
door	-11.7213
▁billion	-11.7214
▁kite	-11.7215
fields	-11.7217
▁pea	-11.7217
▁scare	-11.722
▁squeak	-11.722
▁lumber	-11.7221
▁blinded	-11.7223
▁loaf	-11.7224
▁steals	-11.7225
▁belonging	-11.7233
▁mal	-11.7243
▁gender	-11.7244
▁teenage	-11.725
▁foil	-11.725
▁bet	-11.725
▁tee	-11.7251
▁vile	-11.7251
▁rapt	-11.7261
▁grammar	-11.7261
▁dainty	-11.7265
▁satellite	-11.7265
▁filament	-11.7265
▁lobster	-11.7265
▁communion	-11.7265
▁chunk	-11.7265
▁stool	-11.7265
▁performance	-11.7265
▁property	-11.7265
▁suburban	-11.7265
▁dictionary	-11.7265
▁separation	-11.7266
▁arrangement	-11.7266
▁goddamn	-11.7266
▁hurl	-11.7267
▁increasing	-11.7268
aves	-11.7269
▁canoe	-11.7269
▁crevice	-11.7269
▁flares	-11.727
▁mosquitoes	-11.727
▁grope	-11.727
▁mike	-11.727
▁tennis	-11.727
▁burnished	-11.7273
being	-11.7274
▁reef	-11.7278
▁bracelet	-11.7278
▁nightfall	-11.7278
▁guiding	-11.7282
▁arches	-11.7284
▁heather	-11.7285
▁chewed	-11.7293
▁mortar	-11.7293
▁dominion	-11.7294
▁exploding	-11.7294
▁magnolia	-11.7294
▁proportion	-11.7294
▁adieu	-11.7294
▁scalp	-11.7294
▁contemplate	-11.7296
▁matches	-11.7297
▁alice	-11.7301
▁companions	-11.7302
▁beheld	-11.7304
▁crag	-11.7306
▁brew	-11.7306
▁wider	-11.7308
▁uses	-11.7311
▁germany	-11.7313
▁ballad	-11.7314
▁consumed	-11.7317
▁domestic	-11.732
wash	-11.7323
▁precision	-11.7325
urquoi	-11.7325
blind	-11.7326
▁stalled	-11.7328
▁notion	-11.7331
di	-11.7333
▁vibration	-11.7345
▁silt	-11.7345
▁strawberry	-11.7345
▁unfurl	-11.7345
▁difficulty	-11.7345
▁qui	-11.7349
▁chapel	-11.735
▁sunken	-11.735
▁murk	-11.7354
▁tang	-11.7358
▁crashing	-11.7359
▁steak	-11.7362
▁sleepers	-11.7363
qu	-11.7371
▁smith	-11.7371
ground	-11.7375
▁dewy	-11.7375
▁shutters	-11.7377
craft	-11.7378
▁package	-11.7378
▁hoe	-11.738
ham	-11.7381
▁flashed	-11.7381
▁nuns	-11.7381
ver	-11.7383
▁scented	-11.7384
▁je	-11.7384
lipped	-11.739
tide	-11.7394
stained	-11.7395
▁pens	-11.7396
▁stride	-11.7397
▁joseph	-11.7397
▁quality	-11.7397
▁thrice	-11.7397
▁ponder	-11.7401
▁bereft	-11.7403
bridge	-11.7403
▁pork	-11.7411
▁herald	-11.7412
▁arab	-11.7413
▁dresser	-11.7418
▁villages	-11.7426
▁links	-11.7427
ette	-11.7434
▁appropriate	-11.7434
▁india	-11.7435
▁baffle	-11.7438
took	-11.744
▁stumps	-11.7446
sses	-11.7451
▁handed	-11.7457
▁likewise	-11.7461
▁attract	-11.7462
▁patron	-11.7463
▁fulfill	-11.7469
ura	-11.7475
yes	-11.7475
▁blossoming	-11.7477
▁syllable	-11.7478
▁cot	-11.7479
▁des	-11.7479
ler	-11.7479
oily	-11.748
bo	-11.7489
▁troy	-11.7493
eyes	-11.7494
▁swerve	-11.7496
crates	-11.7499
▁stored	-11.7504
▁bard	-11.7504
▁sewn	-11.7509
va	-11.751
▁skys	-11.7513
die	-11.7514
▁lizards	-11.7517
▁permit	-11.7519
▁hoop	-11.7524
▁yields	-11.7527
▁languish	-11.7528
▁lame	-11.7532
▁meteor	-11.7533
▁glee	-11.7553
▁chapter	-11.7557
ps	-11.756
▁unravel	-11.7564
ander	-11.7566
▁penn	-11.7566
▁panes	-11.7567
▁partial	-11.7569
▁studio	-11.7575
▁atoms	-11.7576
▁invade	-11.7576
▁dinosaur	-11.7577
▁identify	-11.7577
▁indifference	-11.7577
▁jerusalem	-11.7577
▁pudding	-11.7577
▁temporary	-11.7577
▁unbearable	-11.7577
▁fickle	-11.7577
▁vacation	-11.7577
▁moisture	-11.7577
▁average	-11.7577
▁simplicity	-11.7577
▁ireland	-11.7577
▁shingle	-11.7577
▁scroll	-11.7577
▁bacon	-11.7578
▁syntax	-11.7578
▁tractor	-11.7578
▁theatre	-11.7579
▁majority	-11.7579
▁helping	-11.7579
▁operation	-11.7579
▁cupboard	-11.7579
▁fireworks	-11.7579
▁coke	-11.7579
▁gilt	-11.758
▁puer	-11.758
tapping	-11.7581
talk	-11.7581
▁florida	-11.7582
▁chord	-11.7582
▁daybreak	-11.7583
far	-11.7584
▁convinc	-11.7586
▁tasting	-11.7589
lights	-11.759
▁uneven	-11.7591
bar	-11.7591
▁quench	-11.7591
▁loveliness	-11.7592
▁peaches	-11.7594
▁ol	-11.7596
▁bitterness	-11.7601
▁totally	-11.7601
▁pickup	-11.7602
▁fantastic	-11.7604
ated	-11.7605
▁catholic	-11.7607
▁skyscraper	-11.7607
▁peanut	-11.7607
▁indigo	-11.7607
▁fluff	-11.7608
▁spout	-11.7608
▁tribute	-11.7608
▁brilliance	-11.7609
▁doubts	-11.7612
woman	-11.7616
▁retired	-11.7624
▁hom	-11.7625
▁mosquito	-11.7628
idal	-11.7629
▁lizard	-11.7638
▁firing	-11.7643
▁plush	-11.7649
▁twinkle	-11.7649
▁bucks	-11.7651
flowers	-11.7654
▁runner	-11.7654
▁screens	-11.766
▁twitter	-11.766
ul	-11.766
▁aimed	-11.7662
▁latch	-11.7663
▁dissolves	-11.7666
▁desired	-11.7669
▁departed	-11.7672
▁fiber	-11.7672
▁waltz	-11.7672
ney	-11.7674
▁patrol	-11.7675
▁depends	-11.7677
atop	-11.7679
▁shrinking	-11.7684
▁curv	-11.7685
▁unwind	-11.7685
▁nods	-11.7686
▁bewildered	-11.7691
▁pillar	-11.7693
▁mineral	-11.7693
▁rap	-11.7694
▁pickle	-11.7696
▁sock	-11.77
ger	-11.7701
▁grounds	-11.7704
particles	-11.7705
▁scour	-11.7708
▁tension	-11.7713
▁restored	-11.7715
▁erotic	-11.7715
pe	-11.7716
▁eighth	-11.7718
▁braided	-11.7718
▁bathtub	-11.7719
▁descended	-11.772
▁jean	-11.7723
▁orient	-11.7726
toward	-11.7729
tat	-11.7729
▁worker	-11.7731
▁washes	-11.7734
▁clan	-11.7736
▁provide	-11.7736
▁tavern	-11.7741
▁bob	-11.7743
▁assured	-11.7745
gh	-11.7747
▁fawn	-11.7751
istic	-11.7752
motion	-11.7757
familiar	-11.7758
style	-11.7758
▁tra	-11.7758
▁jobs	-11.7759
throat	-11.7759
▁mayst	-11.776
school	-11.776
sometimes	-11.776
skin	-11.7764
▁clue	-11.7766
▁complicate	-11.7768
▁coward	-11.7769
ably	-11.777
among	-11.777
▁admir	-11.7771
▁cunt	-11.7771
cents	-11.7772
▁rind	-11.7774
▁rum	-11.7776
▁tortured	-11.7777
laid	-11.7778
▁jumps	-11.7783
washed	-11.7788
▁dre	-11.7788
inside	-11.779
▁magazines	-11.7794
▁oranges	-11.7796
ged	-11.7798
▁portrait	-11.7804
▁pod	-11.7808
▁mists	-11.7808
pillars	-11.7813
▁ripen	-11.7814
▁dick	-11.7815
▁knuckle	-11.7822
▁shots	-11.7828
▁singers	-11.7829
thin	-11.7829
▁micro	-11.7835
ez	-11.7836
▁crane	-11.7854
▁horizons	-11.7856
▁miser	-11.7857
theres	-11.7858
▁classic	-11.786
▁char	-11.7861
within	-11.7861
▁roost	-11.7863
wing	-11.7864
▁groans	-11.7864
▁waver	-11.7864
makers	-11.787
▁gem	-11.7872
▁dimm	-11.7872
▁marker	-11.7876
▁eagles	-11.7876
▁quill	-11.7879
▁pas	-11.7883
▁unique	-11.7883
▁delights	-11.7889
strip	-11.7893
▁enclose	-11.7895
▁coax	-11.7895
port	-11.7897
▁yarn	-11.79
▁squirm	-11.79
▁coconut	-11.79
▁fracture	-11.79
▁genuine	-11.79
▁crotch	-11.79
▁geometry	-11.79
▁literature	-11.79
▁spleen	-11.79
▁flannel	-11.79
▁potential	-11.79
▁japan	-11.79
▁isolation	-11.79
▁fishermen	-11.79
▁pony	-11.7901
▁stella	-11.7901
▁comma	-11.7901
prone	-11.7901
▁anvil	-11.7904
▁incessant	-11.7905
ations	-11.7906
▁floorboards	-11.7906
▁via	-11.7908
▁hoard	-11.7911
▁evermore	-11.7911
▁xii	-11.7912
▁gentleman	-11.7912
▁distinct	-11.7914
▁bland	-11.7915
▁impress	-11.7917
▁cargo	-11.792
▁slammed	-11.7923
▁understands	-11.7925
last	-11.793
▁ceremony	-11.7931
▁smoky	-11.7931
▁lavish	-11.7931
▁sleet	-11.7931
▁involved	-11.7931
▁supply	-11.7931
▁compassion	-11.7932
▁leader	-11.7934
▁fronds	-11.7936
▁grieving	-11.7937
▁gaps	-11.7942
▁reins	-11.7945
▁skyline	-11.7946
▁shuffle	-11.795
nyl	-11.7951
▁closely	-11.7953
▁barber	-11.7953
▁heath	-11.7961
▁astonished	-11.7963
▁ravine	-11.7964
▁tortoise	-11.7967
▁flims	-11.7967
▁ruler	-11.7971
▁muck	-11.7981
▁verge	-11.7983
▁extinct	-11.7983
▁conduct	-11.7984
▁sodden	-11.7985
▁aloof	-11.7985
▁geography	-11.7986
▁reluctant	-11.7987
▁ka	-11.7991
▁historical	-11.7997
▁soundless	-11.7998
▁deepening	-11.7999
▁para	-11.8
▁scattering	-11.8006
▁chat	-11.8012
▁daz	-11.8013
▁bishop	-11.8016
▁frosty	-11.8016
▁coy	-11.8019
cloud	-11.8019
▁sports	-11.8019
▁slop	-11.8021
uz	-11.8022
▁shave	-11.803
▁paddle	-11.803
▁wavering	-11.8033
▁ston	-11.8037
▁fathom	-11.8038
▁squatt	-11.8039
▁carlo	-11.804
▁muzzle	-11.8041
▁fights	-11.8046
cap	-11.8046
▁mayor	-11.8047
▁bum	-11.8049
▁groom	-11.8052
▁bake	-11.8057
▁vegetables	-11.8058
▁bust	-11.8062
▁orchids	-11.8066
▁wanders	-11.807
▁puddles	-11.8076
taking	-11.8079
▁beau	-11.8081
▁splits	-11.8082
▁mumbl	-11.8086
▁enjoyed	-11.8086
▁thankful	-11.8089
▁margin	-11.8093
▁fiend	-11.8097
▁casket	-11.8097
▁palli	-11.8099
▁decree	-11.81
▁relation	-11.8101
▁traveller	-11.8101
▁scholar	-11.8102
▁chilled	-11.8103
▁ax	-11.8104
▁dur	-11.8106
▁weeps	-11.8108
▁disorder	-11.8108
▁revel	-11.8109
hung	-11.8109
▁shocked	-11.8111
▁spangle	-11.8113
▁visits	-11.8125
phrases	-11.8127
finite	-11.8131
▁nut	-11.8135
▁affections	-11.8136
coat	-11.8139
▁dwarf	-11.814
▁allows	-11.8143
ise	-11.8144
behind	-11.8145
▁hums	-11.8145
▁circula	-11.8149
moon	-11.8152
▁taps	-11.8152
▁accurate	-11.8154
▁deft	-11.8155
▁elders	-11.8157
▁rob	-11.8158
▁monuments	-11.8165
▁patt	-11.8166
▁apologize	-11.8167
▁plead	-11.8169
▁deem	-11.8174
iii	-11.818
ks	-11.8184
youre	-11.8197
▁blurr	-11.8201
▁apolog	-11.8201
▁ode	-11.8211
▁mango	-11.8212
▁caw	-11.8215
mi	-11.8215
axis	-11.8217
▁occasional	-11.8223
▁sculpt	-11.8226
▁wring	-11.8228
▁sleigh	-11.8229
▁confirm	-11.8229
▁contour	-11.8233
▁raccoon	-11.8233
▁sabbath	-11.8233
▁ostrich	-11.8233
▁prosper	-11.8233
▁splendour	-11.8233
▁desolation	-11.8233
▁alabama	-11.8233
▁timid	-11.8233
▁ghastl	-11.8233
▁latter	-11.8233
▁unnatural	-11.8233
▁lasting	-11.8233
▁breaths	-11.8234
▁mortis	-11.8234
▁festival	-11.8234
▁discontent	-11.8234
▁loam	-11.8235
▁distraction	-11.8236
▁readers	-11.8237
ancestral	-11.8237
▁murderous	-11.8237
▁stout	-11.8239
▁jackson	-11.824
▁quarters	-11.8241
▁countryside	-11.8242
▁spain	-11.8242
▁pancake	-11.8242
▁quilt	-11.8242
tops	-11.8244
▁possession	-11.8246
▁certainty	-11.8248
▁mechanical	-11.8253
▁recit	-11.8253
▁deity	-11.8255
▁earring	-11.8255
▁barge	-11.8255
▁glowed	-11.8257
▁aqua	-11.8258
▁experiment	-11.8262
▁grotesque	-11.8265
▁license	-11.8265
▁bridegroom	-11.8265
▁gigantic	-11.8265
▁label	-11.8267
▁celebration	-11.8267
▁routine	-11.8269
▁miserable	-11.8271
▁tighter	-11.8272
▁transformed	-11.828
▁seriously	-11.8285
▁meals	-11.8286
standing	-11.8288
▁forks	-11.8293
▁sag	-11.8293
alleys	-11.8295
▁masses	-11.8295
▁oddly	-11.8297
▁covert	-11.8302
dong	-11.8304
▁angelic	-11.8308
▁ample	-11.8308
▁chilly	-11.8309
▁bursts	-11.831
▁broth	-11.8315
▁dame	-11.8315
▁sifting	-11.8316
▁forc	-11.8317
▁railing	-11.8318
▁cautious	-11.8321
▁sharing	-11.8321
▁brisk	-11.8323
▁troops	-11.8323
▁almighty	-11.8324
hal	-11.8324
▁richard	-11.8327
▁decent	-11.833
▁isolate	-11.8332
ami	-11.8332
▁dire	-11.8334
holding	-11.8338
▁lighting	-11.8338
▁halt	-11.8341
▁cured	-11.8341
▁enchantment	-11.8342
tum	-11.8347
▁nast	-11.8348
▁hind	-11.8349
▁beginnings	-11.8355
▁fee	-11.8355
▁withdraw	-11.8358
▁freak	-11.8358
▁camels	-11.8359
▁ba	-11.8367
▁chords	-11.8374
▁bulls	-11.8378
▁rattled	-11.8378
▁wand	-11.838
▁mistakes	-11.8381
▁uneas	-11.8383
▁propped	-11.8385
▁clod	-11.8386
▁stooped	-11.8388
▁dough	-11.8388
ada	-11.8392
▁nun	-11.8395
▁chop	-11.8399
▁aspen	-11.8401
▁aura	-11.8403
▁rumble	-11.8403
does	-11.8403
▁redeem	-11.8405
▁symbols	-11.8406
▁selfish	-11.8407
delphi	-11.8408
▁packs	-11.8412
alt	-11.8413
▁hammered	-11.8414
▁whores	-11.8414
▁cycle	-11.8415
▁scan	-11.8418
▁mos	-11.8422
▁sans	-11.8424
▁planks	-11.8425
▁carp	-11.8425
▁yarrow	-11.8429
car	-11.8435
flat	-11.8436
▁inland	-11.8438
ka	-11.8441
▁refrigerator	-11.8442
▁whim	-11.8447
▁aisle	-11.8448
▁cosm	-11.8448
▁garment	-11.8449
hitting	-11.845
▁li	-11.8451
▁pitt	-11.8452
▁guardian	-11.8457
▁sailor	-11.8457
▁bramble	-11.8459
low	-11.8463
▁thereby	-11.8464
▁actor	-11.8465
▁motions	-11.8465
▁lucy	-11.847
▁dandelion	-11.8479
▁publish	-11.8479
▁expose	-11.8482
▁tickle	-11.8484
▁healed	-11.8488
▁crunch	-11.8489
ji	-11.849
leaf	-11.8491
wall	-11.8492
▁chuck	-11.8495
▁crystals	-11.8497
body	-11.8499
▁moor	-11.8501
▁owned	-11.8501
beautifully	-11.8502
▁rugs	-11.8502
linked	-11.8511
▁fuse	-11.852
mans	-11.8524
▁flights	-11.8526
run	-11.8527
▁flatten	-11.853
▁journal	-11.8536
▁mills	-11.8538
▁griefs	-11.854
fashion	-11.854
▁warmed	-11.8542
floor	-11.8544
great	-11.8545
lin	-11.8548
ative	-11.855
ni	-11.855
▁confuse	-11.8552
pan	-11.8559
ola	-11.8561
▁mutual	-11.8562
▁prevail	-11.8562
▁gal	-11.8565
▁rash	-11.8566
acts	-11.8567
▁anna	-11.8571
▁feature	-11.8571
▁maria	-11.8572
bolts	-11.8574
▁lied	-11.8574
▁resurrect	-11.8576
▁album	-11.8577
▁ambulance	-11.8578
▁avocado	-11.8578
▁bulging	-11.8578
▁conturba	-11.8578
▁district	-11.8578
▁expense	-11.8578
▁bayonet	-11.8578
▁tremor	-11.8578
▁zebra	-11.8578
▁quarry	-11.8578
▁sulphur	-11.8578
▁brazen	-11.8578
▁rumbling	-11.8578
▁beacon	-11.8578
▁golf	-11.8578
▁annoy	-11.8578
▁interview	-11.8578
▁greece	-11.8578
▁trump	-11.8578
▁ardent	-11.8579
▁yank	-11.8579
▁advancing	-11.8579
▁cinna	-11.8579
▁blot	-11.8579
▁chick	-11.8579
▁wallpaper	-11.8579
▁review	-11.8579
▁nudge	-11.8579
▁resurrection	-11.858
▁snaps	-11.858
▁apply	-11.8581
▁cramm	-11.8581
▁classroom	-11.8582
▁atom	-11.8583
▁determine	-11.8583
▁nursing	-11.8585
▁myrtle	-11.8586
▁petty	-11.8586
▁invitation	-11.8587
▁wee	-11.8589
▁unjust	-11.859
▁passive	-11.8592
otted	-11.8595
fertile	-11.8597
▁cod	-11.8597
▁alaba	-11.8598
▁assure	-11.8598
▁slum	-11.86
▁ablaze	-11.8603
▁valentine	-11.8604
▁shaved	-11.8606
▁wayward	-11.8607
▁mottle	-11.8607
▁bask	-11.8609
▁timor	-11.861
▁imprint	-11.861
▁scientist	-11.8611
▁smolder	-11.8611
▁excitement	-11.8611
▁comrades	-11.8612
▁fangs	-11.8613
▁farmhouse	-11.8614
▁depending	-11.8614
▁mor	-11.8614
▁daring	-11.8616
▁appearance	-11.8616
▁compell	-11.8618
▁writhe	-11.8618
▁hemisphere	-11.862
▁sundown	-11.862
▁maim	-11.8621
instantly	-11.8623
▁bounc	-11.8632
▁waiter	-11.8632
gold	-11.8633
▁sewer	-11.8634
▁twitching	-11.8635
▁comrade	-11.8635
▁rung	-11.8639
▁yew	-11.8642
▁cared	-11.865
▁slug	-11.8658
▁mocking	-11.8667
▁fancies	-11.8669
▁choices	-11.8669
▁european	-11.8673
▁walt	-11.8677
▁sash	-11.8678
▁brooding	-11.8681
acting	-11.8681
▁cleaned	-11.8682
▁clasped	-11.8683
▁grasshoppers	-11.8687
heaps	-11.8689
▁gowns	-11.869
▁fasten	-11.869
▁webs	-11.8691
▁stitche	-11.8697
▁tow	-11.8697
ron	-11.8698
▁relatives	-11.8701
▁receiv	-11.8705
ba	-11.8706
gun	-11.871
▁actors	-11.871
▁tenderly	-11.8713
▁deliberate	-11.8714
▁rounds	-11.8722
▁bash	-11.8723
▁peril	-11.8724
▁aught	-11.8725
▁reminder	-11.8737
▁mane	-11.8738
ran	-11.874
ti	-11.8743
▁sways	-11.8744
▁flaw	-11.875
lay	-11.875
▁disc	-11.8755
▁inscribed	-11.8758
fer	-11.8758
▁rouse	-11.8765
▁stanza	-11.8775
▁boarded	-11.8775
hell	-11.8778
▁ravens	-11.8782
ata	-11.8785
▁cue	-11.8786
▁occurs	-11.8789
▁clip	-11.879
▁stormy	-11.8791
▁funnel	-11.8794
▁devise	-11.8795
sh	-11.8796
▁mart	-11.8797
eval	-11.8797
▁walnut	-11.8797
▁sixth	-11.8798
▁snout	-11.8798
▁pumpkin	-11.8801
▁messenger	-11.8803
▁passenger	-11.8805
▁ban	-11.8805
part	-11.8806
▁fuzz	-11.8809
lie	-11.8809
▁hollows	-11.8809
▁howls	-11.8815
pity	-11.882
inch	-11.882
▁meter	-11.882
▁hallow	-11.8821
▁ferns	-11.8821
▁fund	-11.8823
▁commit	-11.8824
▁shrivel	-11.8826
▁hens	-11.8827
▁quake	-11.8835
▁blindly	-11.8837
▁whips	-11.8838
▁thoughtful	-11.884
▁cafe	-11.884
▁warble	-11.8841
▁ph	-11.8842
▁tubes	-11.8842
▁cones	-11.8858
▁wal	-11.8858
dom	-11.8858
▁assemble	-11.8859
▁crackle	-11.8864
▁monkeys	-11.8866
cas	-11.8866
▁eros	-11.887
traps	-11.887
▁peers	-11.8874
ky	-11.8874
▁whimper	-11.8882
▁compound	-11.8883
ja	-11.8885
▁seeks	-11.8888
▁transform	-11.8889
▁appeal	-11.8891
▁keeper	-11.8895
▁speaker	-11.8897
▁explore	-11.8899
root	-11.89
▁ram	-11.8911
▁accustom	-11.8913
▁panel	-11.8916
fe	-11.8919
cal	-11.892
▁conjure	-11.8925
neath	-11.8926
▁receives	-11.8927
dust	-11.8927
▁mathematic	-11.8932
ach	-11.8932
▁alcohol	-11.8933
▁egypt	-11.8934
▁sovereign	-11.8935
▁boulevard	-11.8935
▁confetti	-11.8935
▁conquest	-11.8935
▁countenance	-11.8935
▁detroit	-11.8935
▁gossamer	-11.8935
▁honeysuckle	-11.8935
▁juniper	-11.8935
▁nostalgia	-11.8935
▁artificial	-11.8935
▁impact	-11.8935
▁opportunity	-11.8935
▁dolphin	-11.8935
▁predator	-11.8935
▁variety	-11.8935
▁firmament	-11.8935
▁cardinal	-11.8935
▁persistent	-11.8935
▁lobby	-11.8935
▁moose	-11.8935
▁charlie	-11.8935
▁yael	-11.8936
▁yankee	-11.8936
▁billboard	-11.8936
▁imitation	-11.8936
▁prose	-11.8937
▁buzzard	-11.8937
▁corruption	-11.8937
▁wreckage	-11.8937
▁obedient	-11.8937
▁spake	-11.8938
fully	-11.8938
▁mercury	-11.8938
▁iowa	-11.8939
▁surprising	-11.8939
▁confident	-11.894
ious	-11.894
▁sharpen	-11.894
conscious	-11.8941
▁anthem	-11.8941
▁industr	-11.8941
▁suggestion	-11.8942
▁swaddle	-11.8942
▁birdsong	-11.8942
▁adolescent	-11.8942
▁downhill	-11.8942
▁mantle	-11.8943
▁chess	-11.8944
▁underworld	-11.8945
▁taint	-11.8946
▁revolv	-11.8947
▁kindred	-11.8949
▁dreary	-11.8949
national	-11.8949
▁poppy	-11.8952
▁stabb	-11.8954
▁ko	-11.8955
▁potter	-11.8957
built	-11.8957
taken	-11.8959
▁sharks	-11.8959
morning	-11.8961
women	-11.8962
spent	-11.8962
another	-11.8963
▁chip	-11.8963
mused	-11.8965
▁serving	-11.8966
▁cornfield	-11.8966
▁knob	-11.8967
▁positive	-11.8969
▁abraham	-11.8969
▁hudson	-11.8969
▁persimmon	-11.8969
▁kennedy	-11.8969
▁swagger	-11.897
▁bulge	-11.897
▁garlic	-11.8971
▁forgiven	-11.8972
▁barbarian	-11.8972
▁praised	-11.8973
▁divorced	-11.8975
▁sentimental	-11.8976
▁hog	-11.8976
▁punish	-11.8977
▁combine	-11.8981
▁plato	-11.8989
▁oats	-11.8997
▁comet	-11.8999
▁infinitely	-11.9002
▁clipp	-11.9002
▁tress	-11.9003
▁jutt	-11.9004
▁invited	-11.9005
▁improve	-11.9011
▁doze	-11.9015
▁solace	-11.9023
▁unta	-11.9025
▁shutter	-11.9026
▁concept	-11.9028
▁luke	-11.9028
▁bodi	-11.9028
▁bristl	-11.9028
▁languid	-11.903
▁definition	-11.903
▁skeletons	-11.9032
hosts	-11.9034
▁pumping	-11.9035
▁weaves	-11.904
▁swish	-11.9046
▁lain	-11.9052
▁strengthen	-11.9054
▁toad	-11.9057
▁parrots	-11.9063
ls	-11.9068
▁coals	-11.9071
▁grande	-11.9072
▁viii	-11.9072
bel	-11.9075
▁interrupted	-11.9076
▁grabb	-11.9079
uous	-11.9081
▁laced	-11.9084
▁dow	-11.9087
ina	-11.9088
▁strick	-11.9088
▁stung	-11.9089
▁barns	-11.9089
▁ali	-11.9092
▁crank	-11.9093
▁vote	-11.9096
▁laps	-11.9097
▁muscula	-11.9098
▁trad	-11.9098
▁heartbreak	-11.91
▁hurrying	-11.9106
▁fitting	-11.9108
▁freshly	-11.9112
▁cocked	-11.9125
▁tradition	-11.9138
▁porter	-11.9139
▁dips	-11.9142
▁handles	-11.9147
▁decade	-11.9152
▁pedal	-11.9155
▁nobler	-11.9158
▁kicks	-11.9158
▁stamps	-11.9161
▁intellectual	-11.9165
▁diner	-11.9165
▁blackbirds	-11.9167
▁wade	-11.9168
▁clamp	-11.917
▁crayon	-11.9171
holes	-11.9173
▁airplane	-11.9173
▁lapse	-11.9174
nd	-11.9174
▁parrot	-11.9174
▁relative	-11.9175
▁upset	-11.9178
ight	-11.9188
▁monk	-11.919
ith	-11.919
▁seethe	-11.9191
size	-11.9201
beat	-11.9203
▁gong	-11.9203
▁nipple	-11.9211
▁luster	-11.9213
▁eel	-11.9219
▁z	-11.9221
▁hedges	-11.9226
▁incline	-11.9227
stock	-11.9232
▁dares	-11.9232
▁submerge	-11.9233
▁vessels	-11.9234
za	-11.9238
▁pumps	-11.924
▁sate	-11.9243
▁greens	-11.9244
▁trailer	-11.9246
▁ramp	-11.9248
▁pious	-11.9248
tted	-11.925
▁batter	-11.9253
▁harness	-11.9255
breath	-11.9255
▁flatter	-11.9257
drops	-11.9257
▁mouthful	-11.926
▁flickers	-11.9269
▁knight	-11.927
▁dwells	-11.9271
▁cooler	-11.9275
▁nibble	-11.9279
dated	-11.9281
▁interpret	-11.9282
▁mot	-11.9282
sick	-11.9284
ze	-11.9284
▁accuse	-11.9285
▁writh	-11.9286
▁popp	-11.9287
▁recalled	-11.9287
▁toll	-11.9287
▁grocer	-11.9288
▁dwel	-11.929
▁bide	-11.9292
▁giggle	-11.9295
▁adams	-11.9296
ex	-11.9297
▁lightness	-11.9298
ular	-11.9298
▁appearing	-11.9301
▁froze	-11.9302
au	-11.9303
▁ranks	-11.9304
▁gaunt	-11.9305
▁elaborate	-11.9305
▁multiply	-11.9305
▁strove	-11.9305
▁suspicion	-11.9305
▁enamel	-11.9305
▁molecule	-11.9305
▁dialogue	-11.9305
▁douglas	-11.9305
▁biscuit	-11.9306
▁patent	-11.9306
▁clime	-11.9306
▁hollywood	-11.9306
▁rosary	-11.9306
▁anticipation	-11.9306
▁rivet	-11.9306
▁shuttle	-11.9306
▁tornado	-11.9306
▁twinkling	-11.9307
▁traitor	-11.9307
▁whirlwind	-11.9307
▁definite	-11.9307
▁fantasy	-11.9307
▁coca	-11.9307
▁surgery	-11.9307
▁downpour	-11.9308
▁kidney	-11.9308
▁unreal	-11.931
▁occupied	-11.9311
▁elk	-11.9311
▁exhaustion	-11.9311
▁tourist	-11.9312
▁policeman	-11.9313
▁eggshell	-11.9313
▁whiten	-11.9313
▁fireplace	-11.9315
▁jig	-11.9315
▁overcoat	-11.9317
▁strapped	-11.9317
ribal	-11.9317
▁enclos	-11.9318
▁heft	-11.9318
▁foreheads	-11.9319
▁regrets	-11.9319
▁teem	-11.9319
▁appall	-11.932
▁torches	-11.932
▁pe	-11.9321
▁embroider	-11.9323
heads	-11.9325
bit	-11.9326
▁benches	-11.9326
soles	-11.9326
▁manhood	-11.9328
▁approaches	-11.9329
▁sipping	-11.9329
▁consent	-11.9329
▁unread	-11.933
▁poster	-11.9331
▁nightgown	-11.9334
horn	-11.9334
▁nettle	-11.9334
▁oblivio	-11.9337
▁hyacinth	-11.9341
▁knead	-11.9341
▁scandal	-11.9341
▁lever	-11.9342
▁armpit	-11.9342
▁quail	-11.9342
▁massacre	-11.9343
▁fluent	-11.9344
▁sensible	-11.9346
horned	-11.9346
▁homeland	-11.9347
▁maggots	-11.9348
▁hitch	-11.9348
▁briar	-11.9354
▁halves	-11.9355
▁lunar	-11.9355
▁sinner	-11.9359
▁defined	-11.9362
sown	-11.9365
▁appreciate	-11.9366
▁fry	-11.9366
▁ruddy	-11.9367
▁patiently	-11.9372
▁courts	-11.9378
▁beaver	-11.938
▁ballet	-11.9382
▁churches	-11.9383
▁popular	-11.9386
▁frequent	-11.9388
▁puff	-11.939
▁popped	-11.9392
length	-11.9393
buried	-11.9394
icing	-11.9395
▁repeats	-11.9398
▁compact	-11.9399
▁sandals	-11.9399
▁racket	-11.9404
▁graft	-11.9404
▁packet	-11.9411
▁wel	-11.9417
oiled	-11.9417
▁bale	-11.9418
▁minister	-11.9418
▁brightly	-11.9419
▁maya	-11.9419
▁nesting	-11.942
▁cooled	-11.943
▁belle	-11.9433
▁bal	-11.9445
pink	-11.9446
▁wasps	-11.9447
▁funk	-11.9447
▁emerged	-11.9449
▁demanding	-11.9452
▁ole	-11.9454
▁chops	-11.9458
▁dyed	-11.9461
▁gash	-11.9461
▁snails	-11.9471
hold	-11.9474
▁lugg	-11.9478
▁nape	-11.9478
▁officers	-11.9481
▁fann	-11.9483
▁examine	-11.9486
▁prophets	-11.949
▁sur	-11.95
▁lash	-11.9503
nnotation	-11.9508
fed	-11.951
▁stalls	-11.9511
▁glisten	-11.9515
▁wisp	-11.9515
bus	-11.9516
▁phila	-11.9516
▁drowns	-11.9517
ashore	-11.9533
▁evolution	-11.9534
▁reproach	-11.9535
▁patriot	-11.9537
▁cute	-11.9539
▁corridors	-11.9539
▁swallowing	-11.954
▁maw	-11.9542
▁jo	-11.9543
▁wield	-11.9546
▁spending	-11.9548
mile	-11.9548
▁jumbl	-11.9553
▁division	-11.9554
▁hart	-11.9554
▁bluff	-11.9555
▁solution	-11.9556
▁socket	-11.9559
▁constellation	-11.956
▁adult	-11.957
▁looms	-11.9571
▁bowel	-11.9571
▁murderer	-11.9573
heart	-11.9573
▁cam	-11.9577
▁chimneys	-11.959
▁clash	-11.9591
▁herring	-11.9597
▁cinder	-11.9598
lane	-11.9602
▁fr	-11.9602
ere	-11.9609
sure	-11.9615
▁princes	-11.9619
▁typ	-11.962
▁aids	-11.9625
▁prais	-11.9627
signed	-11.9633
▁construct	-11.9637
surance	-11.964
▁tart	-11.9641
▁moans	-11.9642
▁hoar	-11.9643
hipped	-11.9644
▁accord	-11.9645
▁screech	-11.9649
▁sneeze	-11.966
▁veer	-11.9675
▁bak	-11.9678
▁pushe	-11.968
▁races	-11.9681
▁hermit	-11.9681
▁cleaning	-11.9686
▁imperfect	-11.9688
▁emblem	-11.969
vulnerable	-11.969
▁acquaintance	-11.969
▁aftermath	-11.969
▁alligator	-11.969
▁oblique	-11.969
▁striving	-11.969
▁illegal	-11.969
▁incision	-11.969
▁proverb	-11.969
▁ultra	-11.969
▁plaza	-11.969
▁groping	-11.969
▁dismal	-11.969
▁braille	-11.969
▁basketball	-11.969
▁navy	-11.969
▁clutter	-11.969
▁buoyan	-11.9691
▁waitress	-11.9691
▁tennesse	-11.9691
▁conviction	-11.9691
▁perilous	-11.9691
▁magnetic	-11.9692
▁makeshift	-11.9692
▁inexplicabl	-11.9692
▁craving	-11.9694
▁avalanche	-11.9694
▁puppy	-11.9695
▁mortality	-11.9695
▁network	-11.9695
▁injured	-11.9696
▁emergency	-11.9696
▁sebasti	-11.9697
▁gnarled	-11.9697
minded	-11.9698
▁offspring	-11.9698
▁riverbank	-11.9699
▁diary	-11.97
trode	-11.97
▁slavery	-11.9703
▁cupid	-11.9704
▁furr	-11.9705
▁canada	-11.9705
▁stunt	-11.9705
▁ale	-11.9706
ology	-11.9708
▁zen	-11.9708
▁disperse	-11.9709
▁fuss	-11.9711
▁lithe	-11.9714
▁prick	-11.9715
▁berry	-11.9717
▁les	-11.9719
▁cartoon	-11.972
▁bray	-11.9722
▁hamlet	-11.9726
▁seemd	-11.9726
▁camouflage	-11.9727
▁yolk	-11.9727
▁skunk	-11.9727
▁turbulen	-11.9727
▁vodka	-11.9727
▁asylum	-11.9727
▁elegy	-11.9727
▁hesitate	-11.9727
▁staircase	-11.9727
▁cylinder	-11.9729
▁terrifying	-11.973
▁loin	-11.9732
▁stiffened	-11.9733
▁program	-11.9736
▁director	-11.9736
shes	-11.9737
▁feign	-11.974
▁ravaged	-11.9741
▁contented	-11.9742
▁provided	-11.9743
▁speechless	-11.9743
▁drains	-11.9745
▁starlings	-11.9745
▁arteri	-11.9752
▁glued	-11.9754
▁pencils	-11.9756
▁trained	-11.9758
▁relish	-11.9758
human	-11.9761
▁slime	-11.9762
lost	-11.9763
▁canary	-11.9763
......	-11.9765
▁yearn	-11.9766
▁crimes	-11.9766
▁napkins	-11.977
uf	-11.9777
▁pleading	-11.9778
▁responsibl	-11.9778
▁brides	-11.9779
thats	-11.978
▁brightest	-11.9782
slow	-11.9782
▁movements	-11.9783
▁concerned	-11.9785
▁enduring	-11.9793
▁famine	-11.9793
▁confound	-11.9793
▁description	-11.9793
▁receding	-11.9793
▁shedding	-11.9796
▁whorl	-11.9796
kay	-11.9796
▁splitting	-11.9797
thwart	-11.9797
tle	-11.98
▁buoy	-11.9802
▁knit	-11.9805
him	-11.9813
pam	-11.9814
▁steeple	-11.9815
▁invit	-11.9818
▁cower	-11.982
other	-11.9822
▁cleave	-11.9829
▁cobweb	-11.9829
▁withering	-11.983
▁herds	-11.9834
eaten	-11.9834
▁damaged	-11.9835
close	-11.9837
space	-11.9837
mail	-11.9838
ac	-11.9841
▁dimly	-11.9844
along	-11.9845
bottom	-11.9848
▁rasp	-11.9849
everyone	-11.9851
felt	-11.9852
poor	-11.9852
something	-11.9852
▁rival	-11.9854
rate	-11.9858
▁mellow	-11.986
▁plunder	-11.986
hes	-11.9861
▁shuts	-11.9863
frost	-11.9869
ren	-11.987
shoulder	-11.9872
pped	-11.9878
▁fowl	-11.9885
▁glob	-11.9886
▁smokes	-11.9896
▁struggles	-11.9897
▁haunts	-11.9903
▁pub	-11.9904
▁mocker	-11.9905
▁mumble	-11.9905
▁swelled	-11.9911
tte	-11.992
▁eer	-11.992
▁truths	-11.9937
dented	-11.9943
▁demons	-11.9945
▁rift	-11.9953
▁trill	-11.9956
▁helicopter	-11.9956
adding	-11.9957
▁comment	-11.9957
▁explaining	-11.9959
▁bead	-11.9963
▁jackets	-11.9964
▁gleamed	-11.9973
▁minne	-11.9976
▁loosed	-11.9988
rest	-11.9991
▁ooze	-11.9991
▁lounge	-11.9993
▁lads	-11.9994
swept	-11.9994
▁lug	-11.9999
stand	-12.0006
▁conclusion	-12.0011
art	-12.0019
▁polar	-12.0019
▁tier	-12.0025
▁georgia	-12.0027
▁contents	-12.0029
ns	-12.0031
▁antler	-12.0036
ments	-12.0036
▁titles	-12.0037
use	-12.0038
▁israel	-12.004
ff	-12.0048
backed	-12.0049
▁dreamy	-12.0049
▁disappoint	-12.0051
▁climate	-12.0052
▁purr	-12.0053
▁tab	-12.0055
▁wrestl	-12.0055
nce	-12.0055
▁padd	-12.0058
▁neutral	-12.006
▁loot	-12.0062
▁brake	-12.0064
▁woodsto	-12.0067
▁notch	-12.0071
thinks	-12.0072
▁immaculate	-12.0074
fastened	-12.0075
▁plumb	-12.0078
▁mil	-12.0081
▁chile	-12.0084
▁trespass	-12.0085
swirls	-12.0087
▁wav	-12.0087
▁listener	-12.0088
▁grandpa	-12.0089
▁ghetto	-12.009
▁graffiti	-12.009
▁practicing	-12.009
▁principal	-12.009
▁recognition	-12.009
▁satisfy	-12.009
▁shrapnel	-12.009
▁synagogue	-12.009
▁veteran	-12.009
▁jefferson	-12.009
▁testament	-12.009
▁possibilities	-12.009
▁congregation	-12.009
▁microphone	-12.009
▁bridle	-12.009
▁woodpecker	-12.009
▁patio	-12.009
▁placid	-12.009
▁urine	-12.009
▁exalt	-12.009
▁scallop	-12.0091
▁thrall	-12.0091
▁las	-12.0091
▁unforgiv	-12.0091
across	-12.0092
▁gravy	-12.0092
▁guise	-12.0092
▁squash	-12.0092
▁piggy	-12.0092
▁sawdust	-12.0094
▁headache	-12.0094
▁mustache	-12.0094
▁gan	-12.0095
▁grill	-12.0096
▁betrayal	-12.0096
▁prophecy	-12.0097
▁pageant	-12.0098
jewish	-12.0099
▁trenches	-12.0099
cent	-12.0099
▁momentary	-12.01
▁uphill	-12.0101
▁giggl	-12.0102
▁invert	-12.0102
▁distill	-12.0105
▁afterlife	-12.0105
▁frontier	-12.0106
▁brimming	-12.0107
▁gland	-12.0108
▁data	-12.0108
▁girdle	-12.0109
▁mammal	-12.0109
▁rye	-12.011
▁illuminated	-12.011
sandy	-12.0111
▁savor	-12.0112
▁posture	-12.0112
▁raindrops	-12.0113
ask	-12.0113
▁teenager	-12.0115
▁covet	-12.0115
▁budding	-12.0116
▁wert	-12.0117
▁kut	-12.012
▁soothing	-12.0122
▁persia	-12.0122
▁saucer	-12.0123
▁loan	-12.0125
▁excited	-12.0125
ri	-12.0125
▁mourners	-12.0125
▁wince	-12.0126
▁econom	-12.0127
▁finer	-12.0127
▁favour	-12.0128
▁caution	-12.0129
▁criminal	-12.0129
▁sluggish	-12.0129
▁context	-12.0129
▁discord	-12.0129
▁fraud	-12.0129
pit	-12.0131
▁disappearance	-12.0131
▁conch	-12.0131
▁snapp	-12.0133
▁plac	-12.0134
▁animate	-12.0136
mind	-12.0137
ticks	-12.0137
▁distract	-12.0144
▁province	-12.0145
▁puffed	-12.0145
▁uplift	-12.0147
▁sickle	-12.0147
bell	-12.015
▁ashen	-12.015
▁gems	-12.0151
▁replies	-12.0154
▁bounds	-12.0156
▁meditation	-12.0156
▁rainbows	-12.0159
▁cadence	-12.0165
▁embers	-12.0166
▁prow	-12.0177
girl	-12.0179
▁mossy	-12.0179
▁landscapes	-12.0182
▁fumes	-12.0183
▁muttering	-12.0185
track	-12.0185
bank	-12.0185
shadow	-12.0188
▁weaken	-12.0189
▁genes	-12.0192
▁fogg	-12.0196
▁leopard	-12.0197
▁quartz	-12.0197
▁shrieking	-12.0198
▁val	-12.02
▁twists	-12.0202
▁colony	-12.0204
▁devoted	-12.0204
▁celebrat	-12.0207
tony	-12.0213
▁waning	-12.0214
hen	-12.0218
ik	-12.0218
▁strait	-12.0222
▁binding	-12.0223
▁pollut	-12.0227
hoo	-12.0228
▁faults	-12.0229
cables	-12.023
▁rig	-12.0232
▁plea	-12.0234
▁chatt	-12.0237
▁bas	-12.0243
wed	-12.0244
mary	-12.0246
tying	-12.0246
▁poni	-12.0248
▁scholars	-12.025
boys	-12.025
▁locate	-12.0251
▁automatic	-12.0251
ruffled	-12.0252
▁stamped	-12.0253
▁fates	-12.0256
▁uncover	-12.0257
▁raft	-12.0258
▁mie	-12.0259
put	-12.0259
▁mattered	-12.026
▁loosely	-12.026
▁greatness	-12.026
▁wildflower	-12.0263
▁theft	-12.0263
▁sockets	-12.0268
▁triumphant	-12.0268
wide	-12.0268
▁apt	-12.027
▁bidding	-12.0283
▁wrestle	-12.0286
table	-12.029
▁painters	-12.0293
cular	-12.0293
▁shattering	-12.0297
lus	-12.0303
▁grime	-12.0307
▁tenor	-12.0308
▁oils	-12.0315
▁loath	-12.0316
▁violins	-12.0316
friend	-12.0317
▁distracted	-12.0317
▁raid	-12.0318
solved	-12.032
▁pyramids	-12.0322
bells	-12.0323
tone	-12.0325
perhaps	-12.0326
▁revive	-12.0331
▁rut	-12.0332
▁heaves	-12.0335
▁scarves	-12.0338
▁defy	-12.0338
▁raced	-12.0339
▁depend	-12.0339
ways	-12.0343
▁glassy	-12.035
▁concerns	-12.0351
▁hap	-12.0351
▁drips	-12.0352
lighted	-12.0355
▁binds	-12.0355
▁dope	-12.0357
▁fellows	-12.0357
▁camel	-12.0362
▁legal	-12.0365
▁su	-12.037
▁trot	-12.0371
▁serpents	-12.0371
▁clothesline	-12.0372
erie	-12.0373
▁postcard	-12.0373
▁spectacle	-12.0374
▁patter	-12.0375
▁affair	-12.0375
▁sliver	-12.0375
▁victor	-12.0376
▁gorge	-12.0376
▁bounce	-12.0381
▁stoic	-12.0391
▁wanderer	-12.0394
aunts	-12.0399
▁hatch	-12.0399
▁underside	-12.0406
▁grasshopper	-12.0416
▁connected	-12.0419
▁praises	-12.0426
▁robb	-12.043
▁recalling	-12.0431
▁wheeling	-12.044
▁lice	-12.0445
▁ambush	-12.0448
▁monoton	-12.0449
▁hazel	-12.045
▁promis	-12.0452
▁trampled	-12.0452
▁wag	-12.0453
▁adventure	-12.0459
▁undress	-12.046
died	-12.0461
▁lass	-12.0479
twix	-12.0481
▁tr	-12.0483
▁alight	-12.0483
▁blocked	-12.0485
▁unwilling	-12.0489
based	-12.0494
▁deposit	-12.0494
▁deceit	-12.0498
▁arrogan	-12.0502
▁tarp	-12.0504
▁han	-12.0504
rule	-12.0506
▁australia	-12.0507
▁hallelujah	-12.0507
▁jupiter	-12.0507
▁precipice	-12.0507
▁sturdy	-12.0507
▁suspicious	-12.0507
▁tremendous	-12.0507
▁keats	-12.0507
▁magpie	-12.0507
▁motorcycle	-12.0507
▁enigma	-12.0507
▁crutch	-12.0507
▁pungent	-12.0507
▁lurid	-12.0507
▁holler	-12.0507
▁spectra	-12.0507
▁spook	-12.0507
▁elvis	-12.0507
▁fluorescent	-12.0507
▁humility	-12.0507
▁venice	-12.0507
▁psychic	-12.0507
▁roger	-12.0507
▁yelp	-12.0507
▁eliot	-12.0507
▁recoil	-12.0507
▁broadcast	-12.0507
▁astonishment	-12.0507
▁hemlock	-12.0508
▁passport	-12.0508
genial	-12.0509
▁lonesome	-12.0509
▁jimmy	-12.0509
▁stash	-12.051
▁resume	-12.051
marks	-12.051
▁mire	-12.051
▁wistful	-12.051
hour	-12.0511
▁collapsing	-12.0511
▁temptation	-12.0511
▁restraint	-12.0511
▁pish	-12.0512
▁unlock	-12.0513
▁westward	-12.0513
hogan	-12.0515
▁scenery	-12.0515
▁essay	-12.0516
▁yesterdays	-12.0516
ging	-12.0517
speak	-12.0517
▁dodge	-12.0518
shell	-12.0519
▁wrapping	-12.052
▁worries	-12.052
▁gym	-12.052
▁thrashing	-12.0521
▁rouge	-12.0521
mown	-12.0522
▁flak	-12.0522
▁deliberately	-12.0525
▁nile	-12.0527
▁ditches	-12.0528
▁invisibly	-12.0529
▁headline	-12.053
▁opulen	-12.053
▁headlong	-12.0537
▁lotus	-12.0538
▁hys	-12.0539
▁cull	-12.054
▁tropic	-12.0542
▁pyre	-12.0542
▁gre	-12.0542
▁chronic	-12.0544
▁addict	-12.0546
▁somber	-12.0547
▁surviving	-12.0547
▁mildew	-12.0547
▁valuable	-12.0547
▁delta	-12.0547
▁blissful	-12.0548
▁crocus	-12.0548
▁platter	-12.0549
▁regal	-12.0549
soft	-12.055
▁contest	-12.055
han	-12.0552
bag	-12.0553
▁stocking	-12.0553
▁taunt	-12.0555
▁scourge	-12.0555
▁desperately	-12.0558
▁gardener	-12.0558
ens	-12.0563
▁bur	-12.0565
▁wells	-12.0567
▁meander	-12.0567
▁calves	-12.0567
▁sunbeam	-12.0567
▁imitate	-12.0572
▁rites	-12.0576
▁particularly	-12.0577
▁locker	-12.058
▁nett	-12.058
▁droop	-12.0585
vi	-12.0593
▁pried	-12.0594
▁hells	-12.0594
qui	-12.0596
▁immediate	-12.0603
▁mounted	-12.0604
▁fingering	-12.0604
▁lemons	-12.0606
▁sally	-12.0606
▁suggested	-12.0608
▁gail	-12.0608
▁penetrate	-12.0608
▁lecture	-12.0615
know	-12.0618
nic	-12.0618
▁bureau	-12.0618
▁confidence	-12.0618
▁emily	-12.0619
▁carnation	-12.062
▁tha	-12.0623
▁dappled	-12.0623
▁treatment	-12.0625
▁shapeless	-12.0626
▁posts	-12.0626
▁photographer	-12.0632
▁feathery	-12.0634
aith	-12.0635
▁auto	-12.0636
mond	-12.0638
round	-12.0644
▁obscured	-12.0646
void	-12.0649
▁pok	-12.0651
▁profane	-12.0652
shirts	-12.0655
alone	-12.0655
▁laden	-12.0658
▁puffs	-12.0659
▁hugg	-12.0663
▁manic	-12.0665
many	-12.0666
▁perfumes	-12.0667
▁types	-12.0668
cant	-12.0669
▁sexy	-12.0674
▁margins	-12.0675
▁casts	-12.0677
▁crate	-12.068
mouth	-12.068
looming	-12.0682
▁reared	-12.0682
bs	-12.0683
▁whipping	-12.0686
▁donne	-12.0692
ros	-12.0694
▁daisy	-12.0695
oo	-12.0696
▁milton	-12.0697
▁bestow	-12.0697
▁emotions	-12.0698
ella	-12.0698
▁highways	-12.0701
arched	-12.0703
littered	-12.0708
▁gi	-12.0708
een	-12.071
▁forbear	-12.0711
▁scal	-12.0713
painted	-12.0713
▁pursu	-12.0715
▁breeds	-12.0723
nia	-12.073
▁oracle	-12.0735
▁sicken	-12.0736
▁williams	-12.0748
▁rupture	-12.0749
▁dey	-12.0755
▁waft	-12.0756
roll	-12.0762
aux	-12.0769
▁nimble	-12.0775
▁fizz	-12.0778
▁sweets	-12.0781
laden	-12.0782
▁homer	-12.0782
form	-12.0785
delivery	-12.0785
▁wir	-12.0786
▁pu	-12.0791
▁embraces	-12.0792
sar	-12.0794
▁chirp	-12.0794
▁clink	-12.0794
ets	-12.0799
▁fil	-12.08
▁mines	-12.0805
▁calle	-12.081
▁swayed	-12.081
▁colorless	-12.0813
▁psalm	-12.0813
▁connection	-12.0813
colour	-12.082
wife	-12.0822
milk	-12.0826
heavy	-12.0826
next	-12.0827
yellow	-12.0827
winter	-12.0827
later	-12.0829
▁horri	-12.083
might	-12.083
outside	-12.0833
▁container	-12.0833
child	-12.0833
op	-12.0835
▁maidens	-12.0836
▁shew	-12.0838
▁dads	-12.0839
whatever	-12.084
▁whit	-12.084
▁duke	-12.0843
▁converse	-12.0845
▁terra	-12.0847
posing	-12.0847
▁warmer	-12.0847
lusive	-12.0848
known	-12.0851
▁oppress	-12.0852
▁owners	-12.0853
▁opal	-12.0858
▁displac	-12.0861
▁portraits	-12.0866
scented	-12.0873
▁mixing	-12.0876
▁reconcile	-12.088
▁prowl	-12.0881
▁jets	-12.0882
walking	-12.0884
▁clothe	-12.0886
▁retain	-12.0886
▁gutte	-12.089
▁sneer	-12.0896
▁pout	-12.0898
urged	-12.0899
near	-12.09
▁sputter	-12.0903
ford	-12.0906
kind	-12.0907
wards	-12.0908
▁clinic	-12.0911
▁pies	-12.0917
▁rabbi	-12.0932
cuffs	-12.0935
ig	-12.0936
▁volcano	-12.0936
▁wordless	-12.0936
strings	-12.0936
▁supple	-12.0937
▁delusion	-12.094
▁hazard	-12.094
▁streaks	-12.094
▁acacia	-12.0941
▁fabulous	-12.0941
▁incredibl	-12.0941
▁luxurious	-12.0941
▁necessari	-12.0941
▁possum	-12.0941
▁releasing	-12.0941
▁trinket	-12.0941
▁wizard	-12.0941
▁thither	-12.0941
▁choking	-12.0941
▁extension	-12.0941
▁reclaim	-12.0942
▁aurora	-12.0942
▁dispute	-12.0942
▁histories	-12.0942
▁reference	-12.0942
▁lagoon	-12.0942
▁majestic	-12.0942
▁linden	-12.0942
▁ebon	-12.0942
▁twain	-12.0942
▁primary	-12.0942
▁windowpane	-12.0942
▁cocoon	-12.0942
▁sere	-12.0943
▁misplaced	-12.0943
▁internet	-12.0943
▁gunshot	-12.0943
▁workshop	-12.0943
▁bison	-12.0944
▁milkweed	-12.0944
▁broadway	-12.0944
▁unison	-12.0944
▁university	-12.0944
▁diesel	-12.0944
▁hapless	-12.0944
▁preparing	-12.0945
▁pitiful	-12.0945
▁obsession	-12.0945
▁deceive	-12.0946
▁sanity	-12.0947
▁dank	-12.0948
▁motto	-12.0948
▁descendant	-12.095
▁symmetr	-12.095
▁segment	-12.095
▁adopt	-12.095
▁tidy	-12.095
▁testing	-12.0953
▁herbert	-12.0953
▁watt	-12.0955
real	-12.0956
▁badger	-12.0958
▁diaper	-12.096
▁flanks	-12.0966
▁sprawled	-12.097
▁whisk	-12.0971
▁spurt	-12.0972
▁rein	-12.0972
▁cheekbone	-12.0973
▁subdued	-12.0973
tie	-12.0974
▁tenant	-12.0977
▁resigned	-12.0977
▁grips	-12.0978
▁compost	-12.0981
▁redemption	-12.0984
▁vanilla	-12.0984
▁diagram	-12.0984
▁mixture	-12.0984
▁creator	-12.0984
▁squawk	-12.0987
▁studie	-12.0987
ag	-12.099
▁pads	-12.0993
▁roil	-12.0994
bred	-12.0994
edge	-12.0994
uch	-12.0995
▁tendenc	-12.0995
▁dan	-12.0996
▁insight	-12.0996
▁beaded	-12.0997
▁unlocked	-12.0998
▁fallow	-12.0999
▁estrange	-12.0999
▁horizontal	-12.1
▁lowers	-12.1005
▁gran	-12.1008
▁reb	-12.1008
▁gazelles	-12.1009
▁undoing	-12.101
▁larr	-12.1011
ld	-12.1011
▁reaction	-12.1011
▁doubtful	-12.1012
▁futures	-12.1015
▁unfurled	-12.1015
▁rooftops	-12.1016
locked	-12.1017
▁skills	-12.1017
ita	-12.1019
▁drapes	-12.102
▁lighthouse	-12.1022
asis	-12.1023
▁dar	-12.1024
▁probe	-12.1024
▁scots	-12.1025
▁thunders	-12.1025
▁shorts	-12.1026
ache	-12.1027
▁cometh	-12.1032
▁aimless	-12.1035
▁permitt	-12.1042
cat	-12.1043
▁intelligent	-12.1046
▁passers	-12.1051
▁compar	-12.1053
▁obsess	-12.1054
maker	-12.1054
▁spawn	-12.1058
▁benign	-12.1058
▁austere	-12.1058
▁whack	-12.1058
▁brushe	-12.106
▁parchment	-12.106
▁amorous	-12.1063
dance	-12.1064
▁kink	-12.1068
▁ladys	-12.1073
stick	-12.1074
▁amen	-12.1075
▁mocked	-12.1078
▁stalking	-12.1078
▁relieved	-12.1079
▁cuban	-12.1082
▁ruthless	-12.1083
▁col	-12.1086
▁witnesse	-12.1091
▁concentrate	-12.1097
▁dwindl	-12.1108
walk	-12.1109
▁vent	-12.1112
▁motive	-12.1114
▁glade	-12.1116
▁literal	-12.1117
▁ripening	-12.1119
▁sch	-12.112
zed	-12.1126
▁yells	-12.113
▁dell	-12.1132
▁whoop	-12.1134
▁bananas	-12.1134
▁education	-12.1135
▁umber	-12.1135
▁nonsense	-12.1135
▁mourned	-12.1137
▁squad	-12.1139
key	-12.114
▁gore	-12.1145
▁invoke	-12.1148
shrouded	-12.115
▁bonds	-12.1152
▁meaningless	-12.1157
▁robins	-12.1161
▁und	-12.1162
▁yielding	-12.1162
▁auntie	-12.1163
▁lighten	-12.1164
▁packing	-12.117
cock	-12.117
▁crops	-12.1183
dog	-12.1187
▁visiting	-12.1193
▁ar	-12.1195
▁cavit	-12.1196
▁recording	-12.1202
▁poly	-12.1202
▁sticker	-12.1202
▁camps	-12.1206
worm	-12.1207
▁orchid	-12.1208
balls	-12.1209
tongue	-12.121
aiming	-12.1212
▁swain	-12.1212
▁flinch	-12.1212
▁decorate	-12.1215
▁falter	-12.1217
▁chins	-12.122
▁mortals	-12.1221
ull	-12.1221
▁timeless	-12.1224
ou	-12.1225
▁taped	-12.1225
▁topple	-12.1226
tz	-12.1228
▁troop	-12.1232
▁refined	-12.1234
▁impression	-12.1237
▁console	-12.1237
▁declin	-12.1241
▁aches	-12.1243
true	-12.1244
▁peas	-12.1244
▁strap	-12.1245
▁era	-12.1246
fast	-12.1254
formed	-12.1256
bones	-12.1256
▁ornament	-12.1261
▁pri	-12.1261
▁sycamore	-12.1262
▁vulture	-12.1262
▁shovels	-12.1262
▁cavern	-12.1263
▁expectation	-12.1264
▁carrot	-12.1265
▁mime	-12.1272
▁highly	-12.1273
▁eased	-12.128
▁complaint	-12.1281
▁spurn	-12.1285
audible	-12.1285
▁sensitiv	-12.129
▁trough	-12.1291
▁location	-12.1291
ended	-12.1291
▁markets	-12.1294
▁badge	-12.1296
▁cherub	-12.1296
ipped	-12.1299
▁opinion	-12.1306
jury	-12.1307
▁inhale	-12.1312
came	-12.1316
blow	-12.1317
stream	-12.132
▁dynamite	-12.132
shade	-12.132
▁gris	-12.1321
▁lashed	-12.1326
▁connecti	-12.1331
▁drawers	-12.1333
▁hare	-12.1333
▁multi	-12.1334
▁flu	-12.1336
storm	-12.1336
▁insert	-12.1341
father	-12.1343
▁plug	-12.1344
▁shameless	-12.1344
▁guarantee	-12.1346
▁tuned	-12.1346
▁rubs	-12.1347
death	-12.1353
beneath	-12.1353
▁uttered	-12.1355
little	-12.1355
always	-12.1356
▁wretch	-12.1357
someone	-12.1359
▁technolog	-12.1359
▁roach	-12.1361
▁birche	-12.1363
folk	-12.1364
▁russia	-12.1365
▁refuses	-12.1369
▁pleat	-12.1373
▁backdrop	-12.1373
▁mug	-12.1374
▁mindless	-12.1377
▁unw	-12.1379
▁stealth	-12.1384
▁hanged	-12.1388
▁pol	-12.1391
▁recollect	-12.1393
▁differ	-12.1393
idden	-12.1394
▁korea	-12.1394
▁republic	-12.1394
▁intellect	-12.1396
▁barricade	-12.1396
▁commerce	-12.1396
▁council	-12.1396
▁crocodile	-12.1396
▁cyclamen	-12.1396
▁locomotive	-12.1396
▁margaret	-12.1396
▁pivot	-12.1396
▁prodigal	-12.1396
▁resolution	-12.1396
▁tremulous	-12.1396
▁automobile	-12.1396
▁drool	-12.1396
▁sludg	-12.1396
▁russet	-12.1396
▁ferocious	-12.1396
▁mosaic	-12.1396
▁slush	-12.1396
▁bounty	-12.1396
▁endurance	-12.1396
▁renown	-12.1396
ya	-12.1396
▁extent	-12.1396
▁whiff	-12.1396
▁commend	-12.1396
▁embarrassment	-12.1396
▁melodious	-12.1396
▁therapist	-12.1396
▁tenement	-12.1396
cultural	-12.1396
▁zeus	-12.1396
▁cluck	-12.1396
▁consolation	-12.1397
▁ochre	-12.1397
▁croak	-12.1397
ition	-12.1397
▁melodies	-12.1397
▁balancing	-12.1397
▁jasmine	-12.1397
▁unspoken	-12.1397
▁fisherman	-12.1397
▁contradiction	-12.1397
▁virgil	-12.1398
▁pilgrimage	-12.1398
▁discourse	-12.1398
▁smirk	-12.1399
▁stress	-12.1399
▁magnify	-12.1399
crusted	-12.1399
▁oppression	-12.1399
▁tam	-12.14
▁domain	-12.14
▁intimacy	-12.1401
▁lamplight	-12.1401
▁surpass	-12.1401
▁merciful	-12.1402
▁drear	-12.1403
▁embarrassing	-12.1404
rum	-12.1404
▁tendril	-12.1407
▁haught	-12.1407
▁awareness	-12.1407
ultry	-12.1408
▁impart	-12.1408
▁grenade	-12.1409
▁conqueror	-12.141
▁abruptly	-12.141
zi	-12.1412
▁jones	-12.1412
▁strangl	-12.1413
▁mow	-12.1414
▁bedside	-12.1416
▁reverent	-12.1417
▁medium	-12.1417
▁mailbox	-12.1422
lived	-12.1423
▁noiseless	-12.1424
▁globes	-12.1428
▁twang	-12.1428
▁munch	-12.1429
▁research	-12.1432
▁snort	-12.1433
▁churning	-12.1434
uc	-12.1434
▁rattles	-12.1435
▁exiles	-12.1438
▁pits	-12.1438
▁vietnam	-12.144
▁apocalypse	-12.144
▁apricot	-12.144
▁vibrant	-12.144
▁beige	-12.144
▁mechanism	-12.144
▁courtesy	-12.144
▁nuclear	-12.144
▁trivial	-12.144
▁parcel	-12.144
▁flax	-12.1441
leaves	-12.1441
▁flaunt	-12.1441
▁reverence	-12.1441
▁primiti	-12.1443
▁panther	-12.1443
sistence	-12.1444
▁squall	-12.1447
▁unlikely	-12.1452
comforted	-12.1453
▁mallet	-12.1454
▁stiffen	-12.1455
▁catastrophe	-12.1457
topped	-12.146
▁shrubs	-12.1461
▁electrical	-12.1461
▁psyche	-12.1463
▁arrested	-12.1475
▁glimmering	-12.1475
▁angeles	-12.1476
▁recovered	-12.1486
sun	-12.1487
▁creating	-12.1491
▁bre	-12.1493
▁nestle	-12.1494
▁fumbl	-12.1497
▁skimm	-12.1498
▁grandmas	-12.1498
▁exceed	-12.15
▁classical	-12.15
rus	-12.1503
thee	-12.1503
▁delicately	-12.1511
▁commands	-12.1514
▁sears	-12.1515
clouds	-12.1515
▁reflex	-12.1518
▁pelican	-12.1518
▁contempt	-12.1518
▁morsel	-12.1521
▁muster	-12.1521
▁ply	-12.1521
▁physician	-12.1522
und	-12.1525
▁exult	-12.1527
▁faced	-12.1527
▁caverns	-12.1529
▁embrac	-12.153
▁overlook	-12.153
paces	-12.1531
▁gim	-12.1533
▁divers	-12.1536
care	-12.1536
▁fearless	-12.1539
pressed	-12.1549
▁occupation	-12.1549
▁squeezed	-12.1549
▁awakening	-12.1551
▁famish	-12.1557
ado	-12.1559
▁windless	-12.1563
▁castles	-12.1565
▁drooping	-12.1565
▁slither	-12.1575
ung	-12.1577
▁orpheus	-12.158
taste	-12.1581
▁mobile	-12.1582
▁flawed	-12.1584
▁cranes	-12.1586
cry	-12.1586
▁affairs	-12.1587
▁cruise	-12.1589
hit	-12.1594
gi	-12.1595
▁sharply	-12.1597
▁determin	-12.1598
ius	-12.1598
▁spasm	-12.1599
▁fraught	-12.1599
▁industrial	-12.1599
ming	-12.1602
word	-12.1605
▁cruis	-12.1609
▁drizzle	-12.1613
▁martin	-12.1614
▁dine	-12.1616
spiring	-12.1621
▁worthless	-12.1627
▁liv	-12.1628
▁texts	-12.1631
▁behave	-12.1638
▁chanting	-12.164
▁displayed	-12.1641
▁gritt	-12.1646
▁mon	-12.1647
▁props	-12.1648
▁knitt	-12.1651
hr	-12.1658
▁presse	-12.1663
ories	-12.1665
▁yog	-12.1666
▁rout	-12.1667
▁mules	-12.1667
pplied	-12.1667
▁assigned	-12.1668
▁wane	-12.1668
▁graph	-12.1671
▁emperors	-12.1674
zo	-12.1676
▁pimp	-12.1677
▁continu	-12.1678
▁moms	-12.1678
▁orphans	-12.1679
▁splatter	-12.168
▁daniel	-12.168
▁advise	-12.168
▁pronounce	-12.1694
sacks	-12.1699
▁offerings	-12.1706
▁musing	-12.1706
▁digest	-12.1706
▁manifest	-12.1714
▁mini	-12.1715
rock	-12.1718
▁ruth	-12.1721
clock	-12.1726
▁cor	-12.1734
▁freeway	-12.1735
▁vista	-12.1737
▁cloudless	-12.1741
▁planting	-12.1742
▁silks	-12.1744
▁fearing	-12.1746
▁foreigner	-12.175
▁cher	-12.1755
spring	-12.1758
▁ordain	-12.1762
▁chi	-12.1764
▁adah	-12.1767
agged	-12.1769
▁reigns	-12.177
▁boo	-12.1771
▁shrouds	-12.1772
▁pointless	-12.1773
ddish	-12.1774
▁raisin	-12.1777
▁drawings	-12.1779
▁perception	-12.1779
ening	-12.1783
▁coldly	-12.1787
cide	-12.1788
▁unmov	-12.1788
▁frenz	-12.179
▁novels	-12.179
▁wasp	-12.1798
trophie	-12.1803
▁spic	-12.1803
▁charmed	-12.1806
city	-12.1812
cer	-12.1813
▁guile	-12.1814
▁glar	-12.1817
▁iced	-12.1817
▁scum	-12.1818
▁flooding	-12.1818
▁mitt	-12.1819
▁quantit	-12.1825
▁overwhelm	-12.1827
▁lu	-12.1828
▁deathless	-12.1828
▁buffet	-12.183
▁shuffl	-12.1834
▁hag	-12.1842
ral	-12.1846
▁scents	-12.1847
▁iraq	-12.1848
▁groups	-12.1853
▁tweed	-12.1855
▁cuba	-12.1856
▁tentative	-12.1857
▁abrupt	-12.1857
clad	-12.1857
▁apparent	-12.1857
▁token	-12.1859
▁concentrati	-12.1861
give	-12.1862
ak	-12.1867
▁encourage	-12.1867
▁assassin	-12.1869
aba	-12.1869
▁seduce	-12.1869
▁disagree	-12.187
▁francis	-12.1872
terranea	-12.1872
▁azalea	-12.1872
▁civic	-12.1872
▁defiance	-12.1872
▁explosive	-12.1872
▁extravagant	-12.1872
▁kashmir	-12.1872
▁missouri	-12.1872
▁salvador	-12.1872
▁spectacular	-12.1872
▁unicorn	-12.1872
▁watermelon	-12.1872
achuset	-12.1872
▁congeal	-12.1872
▁manifold	-12.1872
▁resort	-12.1872
▁alternative	-12.1872
▁antelope	-12.1872
▁radical	-12.1872
▁choosing	-12.1872
▁dentist	-12.1872
▁loiter	-12.1872
▁allegiance	-12.1872
▁elastic	-12.1872
▁jolt	-12.1872
▁popcorn	-12.1872
▁achilles	-12.1872
▁conference	-12.1872
▁eucalyptus	-12.1872
▁impoten	-12.1872
▁tedious	-12.1872
▁abode	-12.1872
▁cataract	-12.1872
▁erasure	-12.1872
▁astray	-12.1872
▁pouch	-12.1872
▁jellyfish	-12.1872
▁berlin	-12.1873
▁brocade	-12.1873
▁currency	-12.1873
▁amazement	-12.1873
▁navel	-12.1873
▁ovid	-12.1873
▁scout	-12.1873
▁parson	-12.1873
▁lemonade	-12.1873
▁siding	-12.1873
sinister	-12.1874
▁entreat	-12.1874
▁plaid	-12.1874
▁affliction	-12.1874
▁unveil	-12.1874
▁unheard	-12.1875
▁thrum	-12.1875
▁forgetfulness	-12.1875
▁tablecloth	-12.1875
▁snag	-12.1875
▁holiness	-12.1875
▁liar	-12.1876
▁telescope	-12.1876
▁recollection	-12.1876
▁plumage	-12.1876
▁feverish	-12.1877
▁sheriff	-12.1878
▁mummy	-12.1879
▁objective	-12.1879
▁stallion	-12.188
▁unnamed	-12.188
▁parish	-12.188
▁midway	-12.188
▁startling	-12.1881
▁sandstone	-12.1881
found	-12.1882
▁barter	-12.1882
▁crypt	-12.1883
▁shaving	-12.1883
▁quay	-12.1884
▁babble	-12.1884
▁raking	-12.1884
▁assembly	-12.1884
▁lair	-12.1885
▁digital	-12.1886
▁mittens	-12.1886
▁italy	-12.1889
▁victorian	-12.189
▁tenth	-12.189
tipped	-12.1891
▁avert	-12.1891
▁residue	-12.1894
▁dispers	-12.1894
▁govern	-12.1897
chamber	-12.1903
forth	-12.1903
▁stave	-12.1903
▁autumnal	-12.1903
paper	-12.1903
▁seemingly	-12.1904
▁springtime	-12.1907
except	-12.1907
▁hike	-12.191
tu	-12.1911
▁skipp	-12.1913
beside	-12.1914
capable	-12.1915
dawn	-12.1917
must	-12.1917
▁organize	-12.1918
▁mica	-12.1918
▁lattice	-12.1919
▁commercial	-12.1919
▁obsolete	-12.1919
▁crumbled	-12.1919
▁catalogue	-12.1919
▁strawberries	-12.1919
▁carolina	-12.192
▁perchance	-12.192
cle	-12.1923
▁octop	-12.1924
▁lilt	-12.1924
▁jealousy	-12.1925
▁legion	-12.1926
▁remov	-12.1926
lis	-12.1927
▁urgenc	-12.1928
▁gears	-12.1936
▁suffers	-12.1938
▁breaker	-12.1941
▁colorful	-12.1942
▁willingly	-12.1943
▁odors	-12.1943
limbo	-12.1944
▁ge	-12.1944
ay	-12.1951
▁related	-12.1952
▁arrang	-12.1952
ese	-12.1953
▁allure	-12.1954
▁robber	-12.1956
thick	-12.1958
▁hacked	-12.196
▁snowfall	-12.1963
▁unmoved	-12.1969
▁aria	-12.1969
stop	-12.197
▁alan	-12.1977
▁weaver	-12.198
▁presents	-12.1981
beaten	-12.1991
▁sucker	-12.1993
▁unre	-12.1994
▁clog	-12.1994
▁zones	-12.1998
▁venom	-12.1999
▁wobble	-12.2
sley	-12.2
hat	-12.2
▁faucet	-12.2001
▁orleans	-12.2001
arian	-12.2003
▁gasping	-12.2003
ence	-12.2005
▁gill	-12.2006
▁arrogant	-12.2006
▁complaints	-12.2013
▁ascending	-12.2015
▁nomad	-12.2019
▁atlas	-12.2021
▁oath	-12.2023
▁dude	-12.2027
▁sho	-12.2036
▁abuse	-12.2038
▁cultivate	-12.204
▁controlled	-12.2041
▁noah	-12.2042
▁tyrann	-12.2046
▁monitor	-12.2048
▁daddys	-12.2048
rd	-12.2054
▁sniffing	-12.2055
eels	-12.2057
▁silky	-12.2058
▁indoors	-12.2062
▁beck	-12.207
hem	-12.207
aunce	-12.2072
▁ja	-12.2082
▁gel	-12.2083
bust	-12.2083
▁clack	-12.2085
▁trellis	-12.2088
▁embraced	-12.209
▁seine	-12.2091
▁wig	-12.2092
▁toppl	-12.2094
▁beards	-12.2099
▁overtake	-12.21
ean	-12.2109
▁plann	-12.2115
▁submit	-12.2117
rise	-12.2122
▁enlarge	-12.2123
▁threatening	-12.2128
▁max	-12.2131
▁snak	-12.2131
▁vary	-12.2135
▁existing	-12.2141
▁bins	-12.2142
▁carrots	-12.2142
▁racks	-12.2144
▁schemes	-12.215
dot	-12.2157
▁assert	-12.2168
▁nonetheless	-12.2171
▁wrack	-12.2171
string	-12.2173
▁jamm	-12.2173
glasses	-12.2175
▁errand	-12.2175
▁ix	-12.2176
sam	-12.2176
▁suggests	-12.2179
▁jay	-12.2187
gent	-12.2194
▁vanishe	-12.2197
po	-12.2199
▁herb	-12.2201
▁ravish	-12.2202
▁acre	-12.2203
▁skim	-12.2204
▁venture	-12.2206
▁mortgage	-12.2208
fur	-12.2208
shire	-12.2209
▁asian	-12.221
▁mono	-12.2212
ota	-12.2217
▁piers	-12.2217
hugging	-12.222
▁sentiment	-12.2224
weedy	-12.2226
▁canals	-12.2227
▁guides	-12.2229
▁doubled	-12.223
▁monsoon	-12.2232
▁savior	-12.2237
▁member	-12.2238
▁sapling	-12.2238
▁spool	-12.2239
▁snuff	-12.2241
▁idol	-12.2241
ization	-12.2244
pot	-12.2245
bee	-12.2246
▁occasions	-12.2251
▁yi	-12.2258
▁longest	-12.2259
▁fitted	-12.2261
rates	-12.2264
▁mutt	-12.2279
▁disco	-12.228
rich	-12.228
▁crumb	-12.2284
term	-12.2286
▁stifl	-12.2287
▁refer	-12.2287
arily	-12.2288
▁puppet	-12.2288
▁lil	-12.2289
dam	-12.229
toothed	-12.2291
ook	-12.2299
color	-12.2302
▁mac	-12.2304
▁equip	-12.2307
▁scope	-12.2309
▁litera	-12.2309
▁arbor	-12.2311
rt	-12.2313
▁shak	-12.2316
bh	-12.2318
▁rump	-12.2318
▁dron	-12.232
▁slough	-12.232
▁bewilder	-12.2322
▁strew	-12.2324
▁squid	-12.2333
▁ranch	-12.2336
▁zeal	-12.2336
▁grins	-12.2336
▁venge	-12.2338
clear	-12.234
▁resound	-12.2342
▁suite	-12.2345
allowing	-12.2346
▁boar	-12.2349
▁thrift	-12.2353
feather	-12.2353
▁thrills	-12.2354
▁episode	-12.2355
▁bunk	-12.236
rugged	-12.236
▁chests	-12.236
▁confine	-12.2361
▁bearded	-12.2362
▁albert	-12.2364
▁matte	-12.2364
bra	-12.2366
▁accidental	-12.2367
▁indicate	-12.2368
▁refresh	-12.237
▁profession	-12.237
▁interrupt	-12.237
▁superior	-12.2371
▁architect	-12.2372
▁aroma	-12.2372
▁scurry	-12.2372
▁thimble	-12.2372
cellophane	-12.2372
▁chrysanthemum	-12.2372
▁columbus	-12.2372
▁dividing	-12.2372
▁fortunate	-12.2372
▁licorice	-12.2372
▁narcissus	-12.2372
▁pedestrian	-12.2372
▁refusal	-12.2372
▁sulfur	-12.2372
▁unfortunate	-12.2372
▁zodiac	-12.2372
▁congress	-12.2372
▁nephew	-12.2372
▁plural	-12.2372
▁capsule	-12.2372
▁flurry	-12.2372
▁baggage	-12.2372
▁radar	-12.2372
▁simultaneous	-12.2372
▁glamour	-12.2372
▁abdomen	-12.2372
▁siege	-12.2372
▁plunging	-12.2372
▁kansa	-12.2372
▁fantasies	-12.2372
▁meager	-12.2372
▁trolley	-12.2372
▁archaic	-12.2372
▁tugged	-12.2372
▁fortress	-12.2372
▁hopping	-12.2373
▁portent	-12.2373
▁hulk	-12.2373
▁contrary	-12.2373
▁lorca	-12.2373
▁tuning	-12.2373
▁tinsel	-12.2373
▁suspension	-12.2373
▁toothbrush	-12.2373
▁greyhound	-12.2373
▁politician	-12.2374
▁missile	-12.2374
▁ardor	-12.2374
▁virus	-12.2374
▁unimaginable	-12.2374
▁expectant	-12.2374
▁hastily	-12.2375
▁sane	-12.2375
▁commonplace	-12.2375
▁ferment	-12.2375
▁technique	-12.2375
▁terribl	-12.2375
▁damon	-12.2378
▁brag	-12.2378
▁retrieve	-12.2378
▁tarry	-12.2378
▁weariness	-12.2378
▁skitter	-12.2379
▁mommy	-12.238
▁scrim	-12.238
▁boyhood	-12.2382
medical	-12.2382
leave	-12.2383
▁sandwiches	-12.2384
▁tombstone	-12.2384
▁woof	-12.2384
▁downstream	-12.2385
▁betty	-12.2385
▁inflame	-12.2386
▁dearly	-12.239
▁fester	-12.239
▁internal	-12.2391
▁prickly	-12.2392
▁piping	-12.2393
turn	-12.2395
▁gable	-12.2396
▁pajamas	-12.2396
▁kindling	-12.2396
▁hoary	-12.2398
▁clank	-12.24
▁collector	-12.2401
▁madman	-12.2402
▁misses	-12.2403
▁tendon	-12.2403
▁grudge	-12.2405
▁homework	-12.2405
▁inspiration	-12.2406
ago	-12.2406
▁babbl	-12.2409
zy	-12.2409
▁clari	-12.2413
▁tackle	-12.2415
thology	-12.2415
▁mounts	-12.2417
▁qualities	-12.2421
▁conceit	-12.2421
▁filigree	-12.2421
▁apparition	-12.2421
▁charcoal	-12.2421
▁symphon	-12.2421
▁comparison	-12.2421
▁flask	-12.2421
▁condense	-12.2421
▁enclosure	-12.2421
▁furtive	-12.2421
▁envious	-12.2422
▁teacup	-12.2422
▁calligraph	-12.2422
▁chemistry	-12.2423
▁modesty	-12.2424
▁professional	-12.2424
▁agent	-12.2426
▁largest	-12.2426
lines	-12.2427
▁jeer	-12.2427
▁pr	-12.2441
▁pint	-12.2441
▁rudely	-12.2441
▁tay	-12.2443
▁turner	-12.2443
▁punished	-12.2443
▁saliva	-12.2447
▁chalky	-12.2452
▁consist	-12.2453
stance	-12.2454
▁options	-12.2458
▁attach	-12.2458
nn	-12.2462
ating	-12.2463
▁uncertaint	-12.2465
▁sample	-12.2468
spread	-12.247
▁ot	-12.2471
▁vo	-12.2473
▁thatch	-12.2476
▁fleshy	-12.2476
▁juices	-12.2477
▁produc	-12.2478
▁cocks	-12.2479
ille	-12.2481
patience	-12.2484
▁nouns	-12.2485
▁lapping	-12.2485
▁chattering	-12.2488
▁bl	-12.2488
▁items	-12.249
▁ruffle	-12.2493
touch	-12.2493
birth	-12.2494
▁recede	-12.2494
▁reform	-12.2495
forgotten	-12.2495
second	-12.2496
▁sprouting	-12.2497
▁clattering	-12.2499
▁extract	-12.25
▁peg	-12.2501
ripe	-12.2502
▁shimmers	-12.2503
▁departing	-12.2506
stroke	-12.2507
▁arthur	-12.2508
words	-12.2513
▁heaved	-12.2513
block	-12.2514
▁tufts	-12.2514
▁entangled	-12.2517
▁presidents	-12.2522
tale	-12.2523
moving	-12.2524
▁perished	-12.2524
▁flecked	-12.2527
▁battery	-12.2532
chester	-12.2541
▁flora	-12.2543
▁molded	-12.2544
▁lank	-12.2548
things	-12.2554
▁vint	-12.2555
▁flats	-12.2556
▁burying	-12.2556
▁asses	-12.2561
▁messengers	-12.2561
▁coz	-12.2566
▁blinked	-12.2566
▁fruitful	-12.2573
▁smoothed	-12.2573
▁drones	-12.2575
rated	-12.2576
smell	-12.2577
▁whirls	-12.2579
▁funerals	-12.2586
▁moored	-12.2588
▁freud	-12.2589
▁ripened	-12.259
▁brace	-12.2593
▁morrow	-12.2597
ias	-12.2597
▁paced	-12.26
▁mangled	-12.2601
▁births	-12.2606
▁hank	-12.2607
▁xi	-12.2608
lan	-12.2616
▁mode	-12.2625
▁fen	-12.2626
▁dribble	-12.2628
▁wow	-12.263
▁containing	-12.263
▁arrayed	-12.2633
▁foxe	-12.2643
▁mata	-12.2651
▁guarded	-12.2652
ient	-12.2653
▁dews	-12.2654
▁der	-12.2655
aw	-12.2659
hy	-12.2666
▁leo	-12.2669
years	-12.2673
raped	-12.2683
▁labored	-12.2684
illa	-12.2686
▁font	-12.2688
▁silo	-12.2689
rod	-12.2691
sity	-12.2709
▁straws	-12.2712
pie	-12.2714
▁gil	-12.2714
ass	-12.2716
▁minus	-12.2721
▁sus	-12.2724
▁mam	-12.2727
▁ascent	-12.2728
▁cove	-12.2728
▁careen	-12.2732
▁disbelie	-12.2733
▁ringed	-12.2736
▁gene	-12.2737
▁define	-12.2737
▁cubes	-12.2739
▁mesa	-12.274
▁whiter	-12.2741
▁sizzle	-12.2748
▁boon	-12.275
▁cu	-12.2754
▁remed	-12.2755
ub	-12.2757
▁abstraction	-12.2761
▁describ	-12.2762
▁chide	-12.2763
▁solve	-12.2764
▁nigger	-12.2764
▁illusions	-12.2764
▁bonfire	-12.2765
▁peacock	-12.2766
▁gird	-12.2766
▁creed	-12.2767
▁wrongs	-12.2769
▁ancestor	-12.2769
wet	-12.2771
▁pastoral	-12.2775
new	-12.2775
burg	-12.2777
▁mythic	-12.2777
▁squeez	-12.2778
▁visitor	-12.2778
▁merge	-12.2783
▁hawthorn	-12.2788
fu	-12.2791
▁blam	-12.2792
▁fused	-12.2792
ripping	-12.2801
ax	-12.2808
▁flay	-12.2813
▁roller	-12.282
ending	-12.2824
▁poorly	-12.2825
cha	-12.2829
▁flan	-12.2829
▁gait	-12.2833
▁una	-12.2834
▁sandal	-12.2834
▁butts	-12.2834
▁sloth	-12.2839
▁tony	-12.2841
res	-12.2852
▁marys	-12.2854
ponds	-12.2856
▁worshipp	-12.2858
▁leer	-12.2862
▁orion	-12.2862
▁illuminate	-12.2872
▁unrest	-12.2873
▁auld	-12.2874
ska	-12.2876
rie	-12.2876
sleep	-12.2878
▁astonish	-12.2881
▁huddle	-12.2883
▁lewd	-12.2884
tar	-12.2885
▁shagg	-12.2889
▁eloquen	-12.2894
▁cleanse	-12.2896
▁assault	-12.2897
▁smug	-12.2897
▁astronaut	-12.2898
▁delicac	-12.2898
▁frigid	-12.2898
▁junior	-12.2898
▁saviour	-12.2898
▁senior	-12.2898
▁tundra	-12.2898
▁vocabular	-12.2898
▁hesitation	-12.2898
▁territori	-12.2898
▁chattanooga	-12.2898
▁pharaoh	-12.2898
▁rachel	-12.2898
▁sphinx	-12.2898
▁stadium	-12.2898
▁coffer	-12.2898
▁phase	-12.2898
▁sterile	-12.2898
▁adapt	-12.2898
▁heritage	-12.2898
▁misfortune	-12.2898
▁tapestry	-12.2899
▁peonies	-12.2899
▁algae	-12.2899
▁scald	-12.2899
▁pewter	-12.2899
▁oblong	-12.2899
▁midsummer	-12.2899
▁harpoon	-12.2899
▁insistent	-12.2899
▁bluish	-12.2899
▁hopped	-12.2899
▁illumination	-12.2899
▁sperm	-12.2899
▁stairwell	-12.2899
▁bawl	-12.2899
▁preparation	-12.2899
fa	-12.2899
▁nylon	-12.29
▁ellen	-12.29
▁rebirth	-12.29
▁flounder	-12.29
▁tinder	-12.29
▁hoo	-12.29
▁revision	-12.29
▁wheelchair	-12.29
▁groin	-12.29
▁teresa	-12.2901
▁denim	-12.2901
▁radiator	-12.2901
▁transformation	-12.2901
▁unknowing	-12.2901
▁hebrew	-12.2901
▁prong	-12.2901
▁contend	-12.2902
▁spied	-12.2902
▁jove	-12.2902
▁oxen	-12.2902
▁unending	-12.2902
▁enterprise	-12.2903
▁menace	-12.2903
▁conductor	-12.2904
▁aphrodite	-12.2904
▁shoreline	-12.2905
▁lint	-12.2905
▁pussy	-12.2906
▁winner	-12.2906
▁alpha	-12.2907
▁twill	-12.2908
▁sculptor	-12.2908
tal	-12.2909
▁spoils	-12.291
▁gypsy	-12.291
▁plaint	-12.291
▁witty	-12.2911
▁imprisoned	-12.2911
▁plait	-12.2911
▁reverie	-12.2911
mar	-12.2912
▁haircut	-12.2914
▁begs	-12.2919
▁versu	-12.292
▁downcast	-12.2921
▁clapping	-12.2923
▁buttocks	-12.2924
▁flopp	-12.2924
▁successful	-12.2926
▁hotels	-12.2926
▁arguing	-12.2927
▁versions	-12.2928
▁betwix	-12.2931
▁baton	-12.2932
▁frett	-12.2933
▁pansies	-12.2933
▁valor	-12.2933
▁outcast	-12.2934
▁deceived	-12.2935
cht	-12.2935
lowly	-12.2936
▁shrugg	-12.2938
▁fart	-12.2939
▁nibbl	-12.294
▁starched	-12.2942
▁sneakers	-12.2942
▁everybodys	-12.2943
anna	-12.2946
ched	-12.2947
▁churn	-12.2949
▁skyward	-12.2949
▁recommend	-12.295
▁galaxies	-12.295
▁obsidian	-12.295
▁valiant	-12.295
▁cloister	-12.295
▁apprentice	-12.295
▁turret	-12.295
▁aquarium	-12.295
▁kindergarten	-12.295
▁puncture	-12.295
▁tawny	-12.295
▁scarecrow	-12.295
▁mash	-12.295
▁activity	-12.295
▁victorious	-12.295
▁crisscross	-12.2951
tip	-12.2953
▁ravenous	-12.2953
▁proves	-12.2956
▁mc	-12.2956
▁fainting	-12.2956
▁marches	-12.2957
▁punk	-12.2957
rising	-12.2961
▁manager	-12.2963
▁import	-12.2964
▁denial	-12.2965
▁battlefield	-12.2967
▁eyeballs	-12.2971
▁psycho	-12.2974
▁mum	-12.2979
▁deemed	-12.2979
▁posed	-12.2981
▁unspeak	-12.2982
▁hae	-12.2984
▁costly	-12.2985
▁denies	-12.2985
▁tack	-12.2987
▁seaward	-12.2991
▁outdoors	-12.2996
▁soothed	-12.2998
▁scooped	-12.2998
watch	-12.3
▁discovery	-12.3
▁aroused	-12.3001
▁spurs	-12.3001
▁contemporar	-12.3001
▁checker	-12.3002
▁chores	-12.3003
▁stoops	-12.3004
▁vineyards	-12.3011
▁intensit	-12.3015
▁ironic	-12.3015
▁lessen	-12.3016
goes	-12.3017
▁nether	-12.3017
com	-12.3017
▁poked	-12.3019
▁serv	-12.3019
▁uproot	-12.3021
▁mating	-12.3022
▁sinful	-12.3024
▁sharpened	-12.3027
▁aglow	-12.3028
▁bole	-12.303
▁deserved	-12.3032
▁allen	-12.3037
▁nicht	-12.3039
▁economic	-12.3039
▁educate	-12.3041
▁baroque	-12.3041
▁forsythia	-12.3041
▁population	-12.3042
cian	-12.3043
▁pursued	-12.3046
▁fi	-12.3047
▁arrowhead	-12.3052
▁slower	-12.3055
▁select	-12.3055
▁independence	-12.3059
▁blackening	-12.3063
pole	-12.3066
▁switched	-12.3066
▁scrambl	-12.3068
▁creeks	-12.3068
q	-12.3069
▁elementar	-12.307
articulate	-12.3071
▁toothless	-12.3073
▁museums	-12.3074
▁postures	-12.3074
▁seep	-12.3077
▁cradled	-12.3077
▁spindle	-12.3078
▁cinders	-12.3084
▁replac	-12.3084
▁clott	-12.3085
▁clustered	-12.3087
weight	-12.3088
▁knights	-12.3091
ridge	-12.3092
▁ob	-12.3092
▁evaporate	-12.3096
▁whims	-12.3101
quiet	-12.3105
▁dandelions	-12.3105
▁pup	-12.3107
drench	-12.3109
limb	-12.3109
▁miller	-12.3111
paint	-12.3114
▁grasped	-12.3116
▁hasten	-12.3116
drunk	-12.3121
▁aboard	-12.3122
kept	-12.3122
quite	-12.3123
▁bumper	-12.3127
eus	-12.3128
teeth	-12.3128
▁steve	-12.313
▁conversations	-12.3132
blast	-12.3133
running	-12.3133
believe	-12.3135
▁enlighten	-12.3135
bury	-12.3136
▁pith	-12.3136
▁kites	-12.3139
whats	-12.3139
getting	-12.3141
▁meanings	-12.3141
▁stanzas	-12.3142
want	-12.3142
▁grumbl	-12.3148
▁chooses	-12.3152
▁accompani	-12.3154
▁performed	-12.3157
▁carol	-12.3163
▁op	-12.3168
any	-12.317
▁avoided	-12.3179
fulness	-12.318
▁villager	-12.3184
▁q	-12.3187
▁compos	-12.3188
▁tur	-12.319
clean	-12.3193
▁bays	-12.3196
pound	-12.3198
▁digs	-12.3203
sounding	-12.3203
hill	-12.3204
▁uh	-12.3208
▁labors	-12.3208
▁trimm	-12.3211
▁quo	-12.3214
▁haunting	-12.3222
mph	-12.3223
ken	-12.3228
ris	-12.3234
uk	-12.3235
ek	-12.3235
measurabl	-12.324
ern	-12.324
▁tricked	-12.324
▁committed	-12.3241
▁sable	-12.3246
▁appointed	-12.3248
▁crazed	-12.3251
▁tally	-12.3257
▁rhythmic	-12.326
raised	-12.3261
▁dee	-12.3262
▁divides	-12.3262
▁qu	-12.3267
▁tingl	-12.327
▁generals	-12.3275
▁scramble	-12.3279
mad	-12.328
▁rely	-12.3283
maine	-12.3286
zu	-12.3287
rid	-12.3288
▁muscled	-12.3291
▁shuck	-12.3295
lt	-12.3296
▁rins	-12.3297
▁snowing	-12.3298
▁relationship	-12.3307
cus	-12.3309
▁docks	-12.331
▁wired	-12.3311
ttering	-12.3311
eg	-12.3313
▁warehouse	-12.3317
▁sapphire	-12.3317
▁nae	-12.3319
▁initial	-12.3322
addressed	-12.3324
▁pupil	-12.3324
▁chants	-12.3324
▁cork	-12.3325
tick	-12.3327
▁dialect	-12.333
▁pew	-12.333
stalk	-12.3331
▁benefit	-12.3334
▁lifeless	-12.3336
▁evergreen	-12.3345
▁amend	-12.3346
soak	-12.3348
yne	-12.3349
load	-12.3353
▁ju	-12.3353
▁barred	-12.3355
▁swath	-12.3356
▁converge	-12.3359
▁pocked	-12.336
▁triumphs	-12.3367
▁menu	-12.3367
▁coffins	-12.3381
▁ger	-12.3382
please	-12.3387
▁giv	-12.3388
▁honk	-12.3392
▁acorn	-12.3392
▁germ	-12.3397
▁inspect	-12.3399
page	-12.3404
▁sores	-12.3405
▁blo	-12.3405
don	-12.3406
▁furl	-12.3408
▁squeal	-12.3409
▁juan	-12.341
▁combat	-12.341
▁hospitals	-12.3414
▁inform	-12.3417
rial	-12.3418
▁sled	-12.3419
▁rev	-12.342
▁rhetoric	-12.3423
▁surmise	-12.3428
▁ferri	-12.3429
▁paradox	-12.343
tripped	-12.3438
▁fitful	-12.3446
▁arguments	-12.3449
▁regiment	-12.345
▁seiz	-12.345
▁robot	-12.3451
▁detach	-12.3453
volcanic	-12.3454
▁arizona	-12.3454
▁ascension	-12.3454
▁bourbon	-12.3454
▁brazil	-12.3454
▁perennial	-12.3454
▁rejoicing	-12.3454
▁secrecy	-12.3454
▁solstice	-12.3454
▁inscription	-12.3454
▁michigan	-12.3454
▁tortilla	-12.3454
▁vampire	-12.3454
▁darwin	-12.3454
▁stereo	-12.3454
▁altitude	-12.3454
▁baptism	-12.3454
▁hammock	-12.3454
▁patriarch	-12.3454
▁britain	-12.3454
▁dross	-12.3454
▁ethereal	-12.3454
▁varnish	-12.3454
▁submission	-12.3454
▁lawrence	-12.3454
▁minnow	-12.3454
▁saunter	-12.3454
▁perimeter	-12.3454
▁shabb	-12.3454
▁nancy	-12.3455
▁spilt	-12.3455
▁storefront	-12.3455
▁dragonfly	-12.3455
▁crucifi	-12.3455
▁diligent	-12.3455
▁scripture	-12.3455
▁combination	-12.3455
▁lintel	-12.3455
▁unholy	-12.3455
▁scalpel	-12.3456
▁palate	-12.3456
thorny	-12.3456
▁keyboard	-12.3456
▁retirement	-12.3456
▁utterance	-12.3456
▁corset	-12.3457
▁slogan	-12.3457
▁nineteenth	-12.3457
▁sierra	-12.3457
▁crucial	-12.3457
▁whirlpool	-12.3458
▁improvement	-12.3458
▁fighter	-12.3459
▁incandescent	-12.3459
▁depot	-12.3459
▁hysterical	-12.3459
▁eloquent	-12.3459
▁enfold	-12.346
▁korean	-12.346
▁hurtling	-12.346
▁sanctu	-12.3461
▁runaway	-12.3461
▁wicker	-12.3461
▁volcanoes	-12.3461
▁starfish	-12.3461
▁decipher	-12.3462
▁phil	-12.3462
▁regardless	-12.3464
▁colt	-12.3466
▁thames	-12.3466
▁memorized	-12.347
▁carcasses	-12.347
▁rebuild	-12.347
alas	-12.3471
▁faithless	-12.3472
▁freezer	-12.3473
▁assist	-12.3473
▁untied	-12.3475
row	-12.3475
▁daunt	-12.3477
▁compress	-12.3478
▁dictator	-12.3478
▁dens	-12.3479
▁propose	-12.3479
ttle	-12.3479
▁drumming	-12.348
▁crossroads	-12.3481
▁sling	-12.3482
vous	-12.3483
▁shorn	-12.3483
▁outlast	-12.3485
▁firewood	-12.3485
▁sprawling	-12.3486
▁confined	-12.3488
▁acri	-12.3488
▁chili	-12.3492
spies	-12.3492
▁wip	-12.3493
▁accomplished	-12.3493
▁goodnight	-12.3494
▁spotlight	-12.3495
▁myths	-12.3495
▁fend	-12.3495
▁medals	-12.3496
▁pops	-12.3499
▁established	-12.3502
▁meaningful	-12.3503
▁holi	-12.3504
fight	-12.3506
▁untime	-12.3508
▁havoc	-12.3509
▁reverend	-12.3509
▁twentieth	-12.3509
▁importance	-12.3509
▁khaki	-12.3509
▁prolong	-12.351
▁assurance	-12.351
▁curiosity	-12.351
▁grandson	-12.3512
▁miners	-12.3514
▁vern	-12.3518
▁gr	-12.3521
▁manna	-12.3522
▁tasks	-12.3525
▁genesis	-12.3526
▁independent	-12.3527
▁fingerprints	-12.3527
▁highland	-12.3528
▁reservation	-12.353
▁seeping	-12.353
▁advanced	-12.3536
minous	-12.3537
▁magn	-12.3544
▁scratche	-12.3547
▁afresh	-12.3547
▁feminin	-12.355
▁richer	-12.3552
▁altered	-12.3553
▁welt	-12.3557
inky	-12.3558
▁gnats	-12.3559
▁strangest	-12.3559
▁mature	-12.3562
▁quote	-12.3562
▁rational	-12.3566
▁sprint	-12.3573
▁wheeze	-12.3574
adder	-12.3574
▁meetings	-12.3579
▁passages	-12.3579
mouthed	-12.3584
▁joan	-12.3585
▁joll	-12.3586
▁kingdoms	-12.3586
▁numerous	-12.3586
▁initials	-12.3588
get	-12.3589
comes	-12.359
wares	-12.3595
ap	-12.3595
▁hinds	-12.3595
▁seamless	-12.3597
▁resisting	-12.36
▁puppets	-12.3603
▁heated	-12.3605
▁tassel	-12.3605
▁ninth	-12.3606
▁scored	-12.3607
▁remarkabl	-12.3608
▁acceptance	-12.3608
▁rages	-12.3608
▁fal	-12.3613
▁causing	-12.3614
wo	-12.3615
ress	-12.3616
allows	-12.3623
▁questioning	-12.3624
▁connections	-12.3627
late	-12.3628
errant	-12.363
▁thoughtless	-12.3631
bear	-12.3632
▁spectacles	-12.3634
▁clam	-12.3636
▁frightening	-12.3637
▁depriv	-12.3641
▁wilder	-12.3643
horse	-12.3646
blade	-12.365
▁adults	-12.3652
keep	-12.3653
phone	-12.3653
▁grasping	-12.3653
▁ignite	-12.3657
▁tailor	-12.3658
▁coldness	-12.3661
▁pronounc	-12.3663
balt	-12.3663
▁au	-12.3663
sworn	-12.3664
▁flaws	-12.3667
▁trauma	-12.3668
tting	-12.3669
▁masked	-12.3671
▁loyalt	-12.3671
▁pav	-12.3673
▁brambles	-12.3673
▁wisely	-12.3674
▁archer	-12.3676
▁overturn	-12.3676
▁pul	-12.3683
▁elf	-12.3686
▁separat	-12.3687
▁cowards	-12.3689
▁outlive	-12.3695
river	-12.3702
▁billions	-12.3705
▁flux	-12.3706
▁yeats	-12.3707
▁bonnet	-12.3707
▁sham	-12.3711
▁unsee	-12.3712
plated	-12.3713
ko	-12.3713
▁sunflowers	-12.3715
matic	-12.3715
▁expressed	-12.3719
▁aristo	-12.3722
▁parable	-12.3725
▁confessed	-12.3725
▁adequate	-12.3725
▁commanded	-12.3733
▁films	-12.3734
▁rabi	-12.3739
▁pent	-12.3741
▁glimpsed	-12.3744
marine	-12.3746
▁glittered	-12.3747
tta	-12.3755
inn	-12.3759
▁youths	-12.3759
lies	-12.376
▁coughed	-12.3763
▁bru	-12.3768
sse	-12.377
ula	-12.3771
▁abid	-12.3776
ki	-12.3777
grateful	-12.3779
earth	-12.378
▁hints	-12.3783
▁barrier	-12.3785
▁recycl	-12.3786
fruit	-12.3787
flesh	-12.3787
stood	-12.3787
raises	-12.3789
haunt	-12.379
▁tri	-12.379
personal	-12.3794
somewhere	-12.3794
since	-12.3796
both	-12.3798
sites	-12.3807
▁forbid	-12.381
▁cheered	-12.3812
forever	-12.3818
▁equi	-12.3819
▁pals	-12.3825
▁navigate	-12.3827
▁sergeant	-12.3827
▁expressions	-12.3831
▁comp	-12.3835
▁clowns	-12.3838
▁roped	-12.3839
▁riots	-12.384
▁lease	-12.3842
▁lowering	-12.3851
▁hyper	-12.3858
kes	-12.386
▁hash	-12.3861
start	-12.3864
▁sie	-12.3867
▁choirs	-12.387
▁authors	-12.387
▁mun	-12.3871
rez	-12.3874
nada	-12.3877
fi	-12.3879
▁marie	-12.3883
rank	-12.3883
▁dives	-12.3885
▁stakes	-12.3889
ue	-12.3897
▁willie	-12.3897
▁punched	-12.39
▁vales	-12.3901
▁scorpion	-12.3905
▁isles	-12.3906
▁wage	-12.3906
▁chandelier	-12.3907
▁caravan	-12.3908
▁fingertip	-12.3913
▁spire	-12.3915
strange	-12.3919
escent	-12.392
▁statement	-12.3922
▁pastel	-12.3922
▁ravines	-12.3924
▁humiliat	-12.3926
lands	-12.393
▁dune	-12.3933
▁slowing	-12.3935
bility	-12.3938
▁authentic	-12.3942
ynge	-12.3943
och	-12.3943
▁anon	-12.3948
▁regards	-12.3949
scent	-12.3951
▁edward	-12.3954
▁squirt	-12.3959
▁campaign	-12.3959
▁dishevel	-12.396
▁kitchens	-12.3962
mann	-12.3967
▁nova	-12.397
anne	-12.3971
▁captains	-12.3973
▁artless	-12.3975
▁quell	-12.3978
▁defin	-12.3979
▁presum	-12.3984
▁volunteer	-12.3986
▁mae	-12.3986
izing	-12.3988
▁ab	-12.3992
▁forecast	-12.3993
▁flings	-12.3996
▁blunder	-12.3997
▁swivel	-12.3998
▁fatten	-12.3999
▁simmer	-12.4001
▁peters	-12.4005
▁communicate	-12.4016
tric	-12.4016
▁luna	-12.4021
▁presume	-12.4024
▁shant	-12.4026
▁psal	-12.4029
▁warnings	-12.403
▁acquire	-12.4032
▁freezes	-12.4038
▁geometric	-12.404
▁pittsburgh	-12.404
▁transit	-12.404
▁affirm	-12.4041
▁philip	-12.4041
▁adjective	-12.4042
▁catacomb	-12.4042
▁ceramic	-12.4042
▁circumference	-12.4042
▁distraught	-12.4042
▁futile	-12.4042
▁hydrangea	-12.4042
▁infancy	-12.4042
▁ingredient	-12.4042
▁irregular	-12.4042
▁kerosene	-12.4042
▁kestrel	-12.4042
▁oklahoma	-12.4042
▁petticoat	-12.4042
▁phoenix	-12.4042
▁turmoil	-12.4042
begotten	-12.4042
▁guinea	-12.4042
▁phonograph	-12.4042
▁vortex	-12.4042
▁citrus	-12.4042
▁janitor	-12.4042
▁lucifer	-12.4042
▁hickory	-12.4042
▁mischief	-12.4042
▁cynthia	-12.4042
▁ineffable	-12.4042
▁sen	-12.4042
▁mozart	-12.4042
▁semblance	-12.4042
▁liberal	-12.4042
▁operator	-12.4042
▁crisis	-12.4042
▁harmonious	-12.4042
▁jukebox	-12.4042
▁discrete	-12.4042
▁proffer	-12.4042
▁awry	-12.4042
▁raving	-12.4043
▁pendant	-12.4043
▁spright	-12.4043
▁matron	-12.4043
▁scoff	-12.4043
▁prism	-12.4043
▁jowl	-12.4043
▁horde	-12.4043
▁unafraid	-12.4043
▁unleash	-12.4043
▁huff	-12.4043
▁composition	-12.4043
▁easing	-12.4043
▁clamour	-12.4043
▁hazy	-12.4043
▁chevy	-12.4043
▁calamity	-12.4043
▁ermine	-12.4043
▁pathetic	-12.4043
▁mauve	-12.4043
▁snapshot	-12.4043
▁titanic	-12.4043
▁admiration	-12.4043
▁barrack	-12.4043
▁invincibl	-12.4043
▁tumor	-12.4043
▁approximate	-12.4043
▁unfathomable	-12.4043
▁subdue	-12.4043
▁fellowship	-12.4044
▁exhibition	-12.4044
▁clarinet	-12.4044
▁calculation	-12.4044
▁undying	-12.4044
tripping	-12.4044
▁dungeon	-12.4044
▁production	-12.4044
▁commitment	-12.4044
▁johnny	-12.4044
▁baptist	-12.4045
▁email	-12.4045
▁accordion	-12.4046
▁madden	-12.4046
▁unload	-12.4046
▁tarnish	-12.4046
gainst	-12.4047
▁brigade	-12.4047
▁vacancy	-12.4047
▁ambitio	-12.4048
▁antennae	-12.4049
▁hamburger	-12.4049
▁panties	-12.4049
▁stairway	-12.4049
works	-12.4049
▁humbly	-12.405
▁outskirt	-12.405
▁symptom	-12.4051
▁vat	-12.4053
▁fundamental	-12.4053
wich	-12.4054
▁flitting	-12.4055
▁mak	-12.4055
▁har	-12.4057
▁frill	-12.4058
▁footage	-12.4059
▁forgave	-12.4059
▁leaden	-12.4061
▁accidentally	-12.4061
▁drest	-12.4062
▁stripping	-12.4063
▁sorcerer	-12.4064
▁shaping	-12.4065
dear	-12.4065
cola	-12.4068
▁opposing	-12.4069
▁poker	-12.4069
▁divert	-12.4069
▁overhear	-12.407
▁loth	-12.4071
▁merciless	-12.4071
▁hardwood	-12.4071
▁flipped	-12.4072
▁runway	-12.4076
▁acquired	-12.4077
▁perpetually	-12.4077
▁builder	-12.4077
▁scuffed	-12.4078
▁rills	-12.4079
▁incomplete	-12.408
▁sheaves	-12.4081
▁relieve	-12.4082
▁ruff	-12.4084
▁prays	-12.4086
▁noun	-12.4087
▁invest	-12.4088
▁vari	-12.4092
▁sooth	-12.4095
▁staple	-12.4095
▁convict	-12.4099
▁heroine	-12.4099
▁scornful	-12.41
▁harbour	-12.4101
▁shrimp	-12.4101
▁abundant	-12.4101
▁giraffe	-12.4101
▁spectrum	-12.4101
▁molasses	-12.4101
▁petrol	-12.4101
▁halloween	-12.4101
▁devout	-12.4101
▁shipwreck	-12.4101
▁untroubl	-12.4101
haven	-12.4101
▁boxer	-12.4101
▁abound	-12.4102
▁patina	-12.4102
▁spittle	-12.4102
▁straps	-12.4102
▁sills	-12.4103
cher	-12.4103
▁physics	-12.4103
▁peru	-12.4103
▁fender	-12.4104
▁trott	-12.4107
▁pods	-12.4108
▁patho	-12.4108
▁zipper	-12.4109
▁warbler	-12.4114
▁wordsworth	-12.4116
▁vigilant	-12.4116
▁expire	-12.4119
aid	-12.4119
▁leafless	-12.4119
hall	-12.4121
rested	-12.4122
▁fairies	-12.4122
▁darn	-12.4123
▁clad	-12.4127
▁icicles	-12.4127
▁detect	-12.413
▁designs	-12.4134
stove	-12.4136
▁expanding	-12.4137
▁tablets	-12.4138
▁formation	-12.4141
▁earning	-12.4141
▁doorbell	-12.4145
▁verbal	-12.4146
▁bobb	-12.415
ual	-12.415
▁portals	-12.4152
▁threading	-12.4155
▁shuffled	-12.4155
▁whan	-12.4156
▁loon	-12.4157
pitch	-12.4157
▁diffuse	-12.4162
▁bully	-12.4165
hide	-12.4166
▁magician	-12.4167
bearer	-12.4171
eh	-12.4173
▁filmy	-12.4173
▁lovingly	-12.4175
oever	-12.4178
▁idly	-12.4184
▁skate	-12.4184
▁pews	-12.4185
▁roasted	-12.4186
▁loser	-12.4198
▁adja	-12.42
▁agents	-12.4201
▁gape	-12.4202
▁voluptuous	-12.4203
▁marigold	-12.4203
▁slather	-12.4203
▁scab	-12.4204
▁colonial	-12.4204
▁spar	-12.4205
▁seeps	-12.4205
▁cr	-12.4207
▁christen	-12.4208
belief	-12.421
▁ornaments	-12.4218
▁nicely	-12.4218
stage	-12.4219
ail	-12.422
▁greener	-12.4222
cream	-12.4224
▁upstream	-12.4224
▁eli	-12.4226
▁resident	-12.4227
▁goad	-12.4227
▁tatters	-12.423
belts	-12.4234
gifted	-12.4234
▁tests	-12.4238
▁countrys	-12.4239
▁sire	-12.4239
▁mund	-12.4241
▁daytime	-12.4241
▁captur	-12.4241
▁peat	-12.4242
▁brakes	-12.4242
ow	-12.4244
▁wages	-12.4244
bearing	-12.4247
▁proven	-12.4248
vis	-12.4249
braced	-12.4252
▁cho	-12.4252
▁groaned	-12.4254
▁spa	-12.4256
▁riven	-12.426
▁gills	-12.4264
gen	-12.4265
test	-12.4267
lv	-12.4268
fit	-12.4275
stones	-12.4282
▁pricked	-12.4282
▁dramatic	-12.4283
▁relations	-12.4284
▁hans	-12.4289
▁zigzag	-12.4292
▁ki	-12.4294
trailed	-12.4306
▁ag	-12.4307
▁bundled	-12.4307
iana	-12.4308
▁genital	-12.4309
▁proputty	-12.4309
tilts	-12.4313
▁continents	-12.432
print	-12.432
ann	-12.4321
mine	-12.4322
▁clerks	-12.4325
▁hollowed	-12.4326
▁suburb	-12.4327
▁banged	-12.4329
▁frowning	-12.4329
should	-12.4329
▁radios	-12.4329
▁bombing	-12.4333
▁partners	-12.4333
▁wold	-12.4335
decked	-12.4336
▁fie	-12.4341
▁bluer	-12.4349
▁includes	-12.4355
▁rusting	-12.436
aku	-12.4367
▁adds	-12.4372
▁chilling	-12.4374
▁marine	-12.4374
▁cuff	-12.4375
▁indulge	-12.4376
▁stripe	-12.4376
gum	-12.4377
mart	-12.4378
pack	-12.4381
▁bu	-12.4386
▁weathers	-12.4387
▁patients	-12.4393
▁blemish	-12.4394
▁shin	-12.4396
▁huh	-12.4396
▁lang	-12.44
ads	-12.44
▁spelling	-12.4403
▁fraction	-12.4406
har	-12.4406
▁dorman	-12.4407
▁wakeful	-12.4409
▁breeding	-12.441
tractive	-12.4411
wight	-12.4414
▁pissed	-12.4416
▁advantage	-12.4418
cake	-12.4418
▁claiming	-12.4418
▁incident	-12.4421
▁mocks	-12.4422
▁mut	-12.443
bellie	-12.4431
▁cello	-12.4433
soon	-12.4433
▁br	-12.4434
▁arena	-12.4439
▁award	-12.4441
▁clogg	-12.4441
▁caper	-12.4443
ram	-12.4444
rumpled	-12.4445
power	-12.4451
▁tit	-12.4454
▁fla	-12.4456
▁finely	-12.4461
▁implore	-12.4466
ru	-12.4467
▁cleanly	-12.4468
▁watcher	-12.4469
eagle	-12.447
hundred	-12.4471
sm	-12.4474
▁uniforms	-12.4476
▁christians	-12.4476
bread	-12.4483
fair	-12.4485
luck	-12.4487
▁lear	-12.4488
▁teams	-12.4489
▁hulls	-12.449
apple	-12.449
▁nub	-12.4492
much	-12.4494
minute	-12.4499
twenty	-12.4501
left	-12.4502
beyond	-12.4503
everywhere	-12.4503
wax	-12.4503
class	-12.4504
▁spokes	-12.4505
itself	-12.451
although	-12.4511
band	-12.4513
▁copie	-12.4515
ala	-12.4516
▁blanch	-12.4517
ker	-12.4519
almost	-12.4521
▁egret	-12.4521
uld	-12.4523
▁politic	-12.4524
living	-12.4524
mer	-12.4527
▁unsur	-12.4528
ndez	-12.4528
▁glut	-12.4528
▁fidget	-12.4529
▁petition	-12.4529
girders	-12.453
unless	-12.4532
▁vineyard	-12.4536
▁deals	-12.4536
▁mantel	-12.4541
went	-12.4541
▁strangle	-12.4541
▁larks	-12.4545
▁pow	-12.4545
▁shrines	-12.4546
corporate	-12.4547
▁intoxicat	-12.4547
▁virtu	-12.4548
pale	-12.4548
▁surgeon	-12.455
home	-12.4554
▁reclin	-12.4554
▁tru	-12.4556
▁brad	-12.4559
▁ignor	-12.4561
▁nipp	-12.4563
▁champ	-12.4567
▁spitt	-12.457
rain	-12.4572
bang	-12.4574
sol	-12.4574
breathing	-12.4575
shop	-12.4576
▁belov	-12.4578
▁wick	-12.4578
ridges	-12.458
▁particle	-12.4585
▁debate	-12.4586
▁expir	-12.4588
▁desir	-12.4592
▁seagull	-12.4593
▁napkin	-12.4598
▁predict	-12.4599
big	-12.4601
▁wart	-12.4602
▁formula	-12.4603
rah	-12.4603
▁oppose	-12.4604
▁contemplat	-12.4604
▁mala	-12.4606
berg	-12.4607
▁turnd	-12.4609
story	-12.461
▁sulk	-12.4611
▁execution	-12.4612
bodi	-12.4613
▁resign	-12.4617
▁div	-12.4619
▁accus	-12.462
▁tapes	-12.462
▁hunk	-12.4628
wrapped	-12.4631
▁searches	-12.4633
tin	-12.4635
▁approve	-12.4643
lley	-12.4644
▁pike	-12.4647
▁blinks	-12.4652
▁ventur	-12.4654
▁wobbl	-12.4655
cor	-12.466
▁obedien	-12.4663
▁vigor	-12.4666
▁hieroglyph	-12.4666
ci	-12.4667
mmune	-12.4667
▁aghast	-12.4667
▁anatomy	-12.4667
▁aperture	-12.4667
▁atlantis	-12.4667
▁bartender	-12.4667
▁calcium	-12.4667
▁cavalry	-12.4667
▁dynast	-12.4667
▁ephemera	-12.4667
▁epitaph	-12.4667
▁exploit	-12.4667
▁friction	-12.4667
▁juicy	-12.4667
▁kangaroo	-12.4667
▁lexicon	-12.4667
▁mackerel	-12.4667
▁rivulet	-12.4667
▁staunch	-12.4667
▁alcove	-12.4667
▁diadem	-12.4667
▁dirge	-12.4667
▁unruly	-12.4667
▁reindeer	-12.4667
▁zinc	-12.4667
▁alexandri	-12.4667
▁augur	-12.4667
▁detour	-12.4667
▁nocturnal	-12.4667
▁temporal	-12.4667
▁vermont	-12.4667
▁cacophon	-12.4667
▁wardrobe	-12.4667
▁erratic	-12.4667
▁sibling	-12.4667
▁habitat	-12.4667
▁banjo	-12.4667
▁jordan	-12.4667
▁eldest	-12.4667
▁albino	-12.4667
▁garnet	-12.4667
▁madonna	-12.4667
▁embryo	-12.4667
▁orgasm	-12.4668
▁benediction	-12.4668
▁enrage	-12.4668
▁toxic	-12.4668
▁vicious	-12.4668
▁seizure	-12.4668
▁honeycomb	-12.4668
▁correspondence	-12.4668
▁resignation	-12.4668
▁heaviness	-12.4668
▁racis	-12.4668
▁sarah	-12.4668
▁hobo	-12.4668
▁outrageous	-12.4668
tenance	-12.4669
▁vigorous	-12.4669
▁contemplation	-12.4669
naissance	-12.4669
▁masterpiece	-12.4669
▁villain	-12.4669
▁rican	-12.4669
courteous	-12.4669
▁cadaver	-12.467
▁eighteenth	-12.467
▁hatchet	-12.467
▁awning	-12.467
▁perverse	-12.467
▁rowboat	-12.467
▁cobblestone	-12.467
▁danny	-12.467
▁removal	-12.467
▁serpentine	-12.467
▁saxophone	-12.467
▁sprite	-12.467
▁railway	-12.4671
▁penance	-12.4671
▁phosphorescent	-12.4671
▁barley	-12.4671
▁lib	-12.4671
▁intersection	-12.4671
▁pineapple	-12.4672
▁undertow	-12.4672
affron	-12.4672
▁pinpoint	-12.4672
▁amnesia	-12.4672
▁flawless	-12.4672
▁thinned	-12.4675
wort	-12.4676
▁engraved	-12.4677
▁rubies	-12.4678
▁articulate	-12.4678
▁drunkard	-12.4678
pinning	-12.4679
▁deform	-12.4679
▁northward	-12.4679
▁horseshoe	-12.468
▁suppress	-12.468
▁blackberry	-12.4681
▁woody	-12.4681
▁oozing	-12.4682
▁glutton	-12.4682
▁imagery	-12.4685
▁cattail	-12.4685
▁plantation	-12.4685
semen	-12.4686
▁wobbly	-12.4686
mitten	-12.4688
▁electronic	-12.469
▁blacktop	-12.469
▁admitted	-12.4692
▁dna	-12.4692
▁yeast	-12.4693
▁horrifi	-12.4695
▁vanquished	-12.4695
▁payment	-12.4697
▁slopp	-12.47
bly	-12.4701
▁sprinkler	-12.4702
▁coo	-12.4703
▁tinkl	-12.4705
▁depressed	-12.4707
▁ledger	-12.4707
▁someplace	-12.4708
▁redwood	-12.4708
▁axle	-12.4709
▁huth	-12.4711
▁aflame	-12.4712
▁lynch	-12.4713
▁cooing	-12.4713
▁teasing	-12.4714
▁andrew	-12.4715
list	-12.4715
▁virtual	-12.472
vo	-12.4724
▁amaze	-12.4724
ast	-12.4729
▁spontaneous	-12.4729
▁kenneth	-12.4729
▁precinct	-12.4729
▁delirious	-12.473
▁emerson	-12.473
▁indigenous	-12.473
▁harmonies	-12.473
▁duncan	-12.473
▁clapboard	-12.473
▁accidents	-12.4733
▁hairline	-12.4733
▁stupor	-12.4734
▁responsibilit	-12.4736
▁brandy	-12.4736
▁undressing	-12.4737
▁lapel	-12.4739
▁styl	-12.4741
▁conjured	-12.4743
▁erst	-12.4744
▁moa	-12.4744
▁portug	-12.4745
▁clipping	-12.4746
▁crackers	-12.4747
▁dement	-12.4749
▁overalls	-12.4749
▁otter	-12.4749
▁emotional	-12.4752
▁ageless	-12.4752
▁included	-12.4753
post	-12.4754
▁assembl	-12.4755
▁callous	-12.4756
wings	-12.4756
▁prior	-12.4758
▁beguiled	-12.4769
▁emptying	-12.477
▁beget	-12.4772
▁seashell	-12.4773
▁das	-12.4773
▁establish	-12.4774
▁gu	-12.4775
▁acute	-12.4775
cre	-12.4776
▁palpable	-12.4776
▁bedtime	-12.4777
ara	-12.4778
▁mainly	-12.478
▁shyly	-12.478
▁prostrate	-12.478
aries	-12.4781
▁moulder	-12.4781
▁treble	-12.4782
▁starch	-12.4784
▁haw	-12.4785
▁suffocat	-12.4785
▁tre	-12.4785
▁succumb	-12.4785
bent	-12.4786
rut	-12.4787
▁tim	-12.4787
▁panick	-12.4788
suitable	-12.4789
▁sorrowful	-12.4793
center	-12.4794
▁endow	-12.4798
▁anticipat	-12.48
▁screwed	-12.4801
▁backlit	-12.4803
▁blu	-12.4807
▁fung	-12.4811
ublin	-12.4813
▁zu	-12.4814
▁trusting	-12.4814
▁paler	-12.4815
ink	-12.4818
▁sinn	-12.4824
mah	-12.4824
rian	-12.4826
▁dashing	-12.4827
▁peacocks	-12.4828
crowned	-12.4829
arm	-12.4831
▁cleaner	-12.4831
▁livi	-12.4835
▁imp	-12.4838
▁significance	-12.4839
▁babylon	-12.4839
makes	-12.484
▁journalist	-12.4841
▁breadth	-12.4842
▁momma	-12.4846
▁reduce	-12.4851
▁mending	-12.4859
▁arid	-12.4859
ants	-12.486
▁psalms	-12.4863
▁hostil	-12.4863
▁demonstrate	-12.4865
▁tending	-12.4867
▁obliterate	-12.4867
▁courses	-12.4875
▁str	-12.4883
▁improbabl	-12.4884
▁traditional	-12.4886
▁daydream	-12.4889
▁lasted	-12.489
▁glistens	-12.489
als	-12.4891
▁fred	-12.4891
▁scape	-12.4892
▁ruts	-12.4893
▁piti	-12.4893
▁falln	-12.4895
▁whitewash	-12.4896
▁continuing	-12.4899
▁tw	-12.4903
▁nag	-12.4905
▁nighttime	-12.4906
think	-12.491
argues	-12.492
ju	-12.492
ix	-12.4921
▁possessions	-12.4925
▁ski	-12.4926
elected	-12.4928
▁marc	-12.4932
▁pel	-12.4937
▁domes	-12.4938
▁restrain	-12.494
▁shocks	-12.4941
▁vir	-12.4943
starred	-12.4943
wearing	-12.4943
▁commence	-12.4947
▁dislike	-12.4947
▁deafen	-12.4948
▁speeds	-12.495
▁blameless	-12.4951
helmets	-12.4951
ides	-12.4958
dar	-12.4962
mission	-12.4964
elia	-12.497
▁particulars	-12.4971
happy	-12.4974
tha	-12.4979
▁staining	-12.4983
▁thistles	-12.4987
lu	-12.499
fat	-12.4994
wheel	-12.4996
▁filtered	-12.4996
eo	-12.4996
ility	-12.4998
▁cipher	-12.5004
dling	-12.5004
▁dripp	-12.5005
▁uttering	-12.5007
▁laboring	-12.5011
closed	-12.5011
▁stinks	-12.5023
▁rend	-12.5027
▁angled	-12.5028
ste	-12.503
len	-12.5034
▁muffle	-12.5038
▁toils	-12.5039
▁stein	-12.504
▁shaded	-12.504
▁origins	-12.5051
▁article	-12.5052
wick	-12.5055
▁ope	-12.5056
▁cal	-12.5058
▁apes	-12.506
▁nuzzle	-12.5069
▁cropp	-12.5073
▁booze	-12.5075
▁ledges	-12.5077
▁evoke	-12.5078
▁dam	-12.5079
glow	-12.5079
ett	-12.5083
▁gener	-12.5085
▁sear	-12.5085
igh	-12.5092
chu	-12.5095
▁sumac	-12.5098
▁evade	-12.5099
▁ti	-12.5103
▁chang	-12.5104
hop	-12.5105
▁pore	-12.5106
▁gen	-12.5117
ettes	-12.5117
lain	-12.5118
boat	-12.5118
train	-12.5124
spirit	-12.5126
drop	-12.5126
▁sue	-12.5129
▁budd	-12.5132
ong	-12.5136
▁peri	-12.5136
▁bla	-12.5138
▁git	-12.514
tern	-12.5141
▁riff	-12.5143
ras	-12.5145
▁thwart	-12.5148
▁scaffold	-12.5155
▁suspend	-12.5158
nage	-12.5168
▁saves	-12.5173
▁clams	-12.5174
capes	-12.5174
▁flam	-12.5175
▁cleav	-12.5175
kill	-12.5176
▁axes	-12.5176
geof	-12.5179
▁sages	-12.518
▁shir	-12.518
move	-12.518
▁hoot	-12.5185
shod	-12.5189
lifted	-12.519
▁surg	-12.5193
▁ceilings	-12.5194
▁detain	-12.5195
▁nigga	-12.5197
▁machete	-12.5198
▁declar	-12.5199
▁innumer	-12.5199
▁fetter	-12.5201
▁equation	-12.5201
▁moros	-12.5201
▁distinction	-12.5202
▁gourd	-12.5203
ked	-12.5206
▁eyelid	-12.5207
▁footstep	-12.5208
▁doubl	-12.5209
num	-12.5212
tus	-12.5219
stride	-12.5219
▁che	-12.5222
▁jut	-12.5222
▁matt	-12.5225
▁locket	-12.5231
▁amer	-12.5235
bore	-12.5236
▁palaces	-12.5245
▁cul	-12.5247
foil	-12.5247
▁males	-12.5248
ila	-12.5251
bitten	-12.5251
▁external	-12.5253
▁barb	-12.5253
baked	-12.5253
seed	-12.5253
lipping	-12.5255
dee	-12.5256
▁chore	-12.5258
case	-12.5258
maid	-12.526
▁beep	-12.526
▁attendant	-12.5261
▁parker	-12.5263
branch	-12.5265
tarred	-12.5266
ep	-12.5268
street	-12.527
ther	-12.527
perfect	-12.527
bur	-12.5271
beautiful	-12.5271
▁gauge	-12.5275
▁inquir	-12.5278
▁alder	-12.5278
▁ru	-12.5281
▁positions	-12.5285
▁scowl	-12.5287
▁unroll	-12.5289
▁recount	-12.529
▁dearth	-12.5292
▁seer	-12.5294
▁ladle	-12.5294
▁warms	-12.5296
trays	-12.5296
▁welcom	-12.5297
▁resource	-12.53
stay	-12.5303
fear	-12.5305
▁spatter	-12.5305
salt	-12.5309
▁annihilat	-12.5316
lugging	-12.5316
▁beguile	-12.5319
bids	-12.5319
▁disclose	-12.532
▁gains	-12.532
taxes	-12.5322
walled	-12.5326
▁slamm	-12.5326
▁artifice	-12.5326
▁achieve	-12.5329
okee	-12.533
▁corona	-12.5331
▁afflict	-12.5331
▁epiphan	-12.5332
▁convent	-12.5333
▁catalog	-12.5333
▁anecdote	-12.5334
▁baltimore	-12.5334
▁bizarre	-12.5334
▁buick	-12.5334
▁certificate	-12.5334
▁cleopatra	-12.5334
▁corduroy	-12.5334
▁defiant	-12.5334
▁fanelli	-12.5334
▁gloucester	-12.5334
▁goggle	-12.5334
▁guttural	-12.5334
▁inexorabl	-12.5334
▁inscrutabl	-12.5334
▁knoll	-12.5334
▁mausoleum	-12.5334
▁pedestal	-12.5334
▁puritan	-12.5334
▁rubbish	-12.5334
▁saguaro	-12.5334
▁transparenc	-12.5334
▁treacherous	-12.5334
▁unnoticed	-12.5334
▁vibrating	-12.5334
▁assuage	-12.5334
▁corkscrew	-12.5334
▁linole	-12.5334
▁pamphlet	-12.5334
▁pruning	-12.5334
▁amsterdam	-12.5334
▁cauldron	-12.5334
▁colleague	-12.5334
▁spouse	-12.5334
▁dickinson	-12.5334
▁hannah	-12.5334
▁barnacle	-12.5334
▁capillar	-12.5334
▁ezra	-12.5334
▁tokyo	-12.5334
▁alternate	-12.5334
▁delirium	-12.5334
▁bridal	-12.5334
▁vantage	-12.5334
▁transient	-12.5334
▁disregard	-12.5334
▁slats	-12.5334
▁drab	-12.5334
▁pliant	-12.5334
▁bunny	-12.5334
▁intercourse	-12.5334
▁providence	-12.5334
▁travail	-12.5334
▁submarine	-12.5334
▁niece	-12.5334
▁supplies	-12.5334
▁vapour	-12.5334
▁constitution	-12.5334
▁piteous	-12.5334
▁pagan	-12.5334
▁entrails	-12.5334
▁granny	-12.5334
gurgling	-12.5334
▁participant	-12.5334
▁plummet	-12.5334
▁colonel	-12.5334
▁joking	-12.5334
▁treason	-12.5334
▁aggressive	-12.5334
▁rectangle	-12.5334
▁interstate	-12.5334
▁rico	-12.5334
▁innards	-12.5334
▁linnet	-12.5334
▁crucifix	-12.5335
▁detective	-12.5335
curiously	-12.5335
▁cocoa	-12.5335
▁haunches	-12.5335
▁sequin	-12.5335
▁duties	-12.5335
▁alright	-12.5335
▁inheritance	-12.5335
▁maize	-12.5335
▁impossibilit	-12.5335
▁accommodate	-12.5335
▁asshole	-12.5335
▁primrose	-12.5335
▁tiniest	-12.5335
▁humiliation	-12.5336
▁extraordinary	-12.5336
▁immers	-12.5336
▁visage	-12.5336
▁falsehood	-12.5336
▁chopping	-12.5336
▁maidenhead	-12.5336
▁protestant	-12.5336
▁pitiless	-12.5337
hath	-12.5337
▁metronome	-12.5337
▁courtship	-12.5338
▁lapped	-12.5338
▁hostage	-12.5338
▁gangster	-12.5338
▁windmill	-12.5338
▁policy	-12.5339
▁unused	-12.5339
▁fridge	-12.5339
▁begat	-12.5339
▁lisp	-12.5339
▁feat	-12.534
▁inert	-12.534
▁hardware	-12.5341
▁housewife	-12.5341
▁infection	-12.5341
▁topmost	-12.5341
▁personality	-12.5341
▁foreman	-12.5341
▁unforgett	-12.5342
▁tid	-12.5342
▁duration	-12.5342
▁suds	-12.5343
▁stupidity	-12.5344
▁sheaf	-12.5344
▁brack	-12.5344
▁dozing	-12.5344
▁eastward	-12.5345
▁tearful	-12.5345
rhea	-12.5345
▁backpack	-12.5345
▁bribe	-12.5345
▁bile	-12.5345
▁goldfish	-12.5346
▁chim	-12.5347
▁elemental	-12.5347
▁norman	-12.5347
▁bakery	-12.5347
fallen	-12.5348
▁sleight	-12.5349
▁introduced	-12.5351
▁appointment	-12.5352
▁gwen	-12.5352
▁scarlett	-12.5355
▁foolishness	-12.5355
▁wooin	-12.5355
▁bobby	-12.5356
tint	-12.5358
▁candie	-12.5359
▁slurr	-12.536
wolf	-12.5364
▁unlearn	-12.5368
▁splashes	-12.5369
▁stammering	-12.5369
sir	-12.5369
▁crashe	-12.537
▁replay	-12.537
▁plight	-12.537
▁casement	-12.5371
▁lordship	-12.5371
▁blackboard	-12.5372
▁propeller	-12.5372
▁relate	-12.5372
▁battlement	-12.5373
▁item	-12.5374
▁unexpectedly	-12.5375
▁bidi	-12.5375
▁tallow	-12.5375
sac	-12.5376
tre	-12.5376
▁scaffolding	-12.5379
▁arrange	-12.5381
▁react	-12.5382
▁droplets	-12.5383
▁frolic	-12.5384
▁chubb	-12.5384
march	-12.5385
▁intern	-12.5386
▁furiously	-12.5386
▁heavenward	-12.5386
▁cro	-12.5386
▁outrun	-12.5387
ano	-12.5388
▁hardship	-12.5389
▁unlit	-12.5389
▁resin	-12.5392
▁executioner	-12.5394
shells	-12.5396
▁dem	-12.5397
edible	-12.5397
▁skelet	-12.5398
▁eddies	-12.54
couples	-12.54
▁freshness	-12.54
▁utopia	-12.5401
▁amethyst	-12.5401
▁baptize	-12.5401
▁endeavour	-12.5401
▁myrrh	-12.5401
▁conflict	-12.5401
▁hosanna	-12.5401
▁optimism	-12.5401
▁zenith	-12.5401
▁weasel	-12.5401
▁buttercup	-12.5401
pointed	-12.5401
▁quack	-12.5401
▁temperate	-12.5401
▁capacit	-12.5403
▁contrast	-12.5403
▁afro	-12.5406
▁totem	-12.5406
▁homeward	-12.5407
▁mowed	-12.541
▁lotion	-12.541
tested	-12.5411
▁screeching	-12.5411
▁overlooked	-12.5412
▁bier	-12.5413
▁macb	-12.5414
arms	-12.5416
▁stabbing	-12.5417
▁deepens	-12.5418
▁greenish	-12.5418
voluntar	-12.5419
dish	-12.5419
clips	-12.5419
▁buddy	-12.542
▁precedes	-12.5421
▁streetlamp	-12.5421
▁bellows	-12.5423
▁hardy	-12.5424
ante	-12.5424
▁compromise	-12.5425
▁shears	-12.5426
oz	-12.5428
▁suitor	-12.543
▁distorted	-12.5431
mmed	-12.5431
▁donuts	-12.5431
▁bun	-12.5432
▁noodles	-12.5432
▁sect	-12.5436
▁partake	-12.5437
▁personally	-12.5439
fo	-12.5439
poses	-12.5439
▁critical	-12.5439
▁trifle	-12.5442
link	-12.5443
▁chaff	-12.5444
▁greenland	-12.5448
▁limpid	-12.545
▁trampl	-12.545
▁magnifi	-12.5454
▁organiz	-12.5457
▁flowrs	-12.5458
▁nicked	-12.5463
▁beckoning	-12.5464
▁swill	-12.5467
▁mystical	-12.5467
▁equations	-12.5469
▁banished	-12.547
▁grinds	-12.5471
▁mont	-12.5481
▁decid	-12.5482
▁seagulls	-12.5482
▁areas	-12.5482
▁suspected	-12.5484
▁skillful	-12.549
▁wend	-12.5494
▁declared	-12.5494
▁acorns	-12.5497
▁evergreens	-12.5497
▁tamed	-12.5502
▁curly	-12.5503
▁sluice	-12.5504
▁asunder	-12.5511
▁consult	-12.5512
▁yore	-12.5513
▁kum	-12.5515
▁inhuman	-12.5516
▁convenient	-12.5518
▁exchanged	-12.5521
▁brin	-12.5522
▁ku	-12.5522
lust	-12.5523
▁galloped	-12.5523
▁chimera	-12.5525
▁persuade	-12.5525
▁earl	-12.5525
▁righteousness	-12.5526
▁heedless	-12.5529
▁desks	-12.553
▁guttering	-12.5538
▁grimace	-12.5545
▁antic	-12.5545
▁hal	-12.5548
▁unbelievabl	-12.5548
▁identifi	-12.5549
▁leaders	-12.5553
ab	-12.5553
▁droops	-12.5554
▁thrilling	-12.5559
▁justify	-12.5561
▁hun	-12.5566
▁hustle	-12.5567
▁habitation	-12.5571
▁pic	-12.5571
▁moonless	-12.5573
trop	-12.5579
▁unc	-12.558
lorn	-12.558
▁pulpit	-12.5581
▁tumbles	-12.5582
elle	-12.5586
▁rime	-12.5591
▁boils	-12.5593
▁min	-12.5593
▁attacked	-12.5595
▁delightful	-12.5597
aga	-12.5598
ttery	-12.56
▁dismantl	-12.5602
▁slanting	-12.5603
tro	-12.5605
falls	-12.5609
bad	-12.5612
▁bleacher	-12.5617
meal	-12.5619
ranged	-12.5621
▁wheeled	-12.5621
▁blurs	-12.5624
▁curd	-12.5624
engaged	-12.5629
▁salvage	-12.5629
read	-12.563
ye	-12.563
▁blasphem	-12.5632
▁flips	-12.5633
▁investigate	-12.5636
shore	-12.5637
▁sacrament	-12.564
▁conception	-12.5644
gnawed	-12.5646
▁grub	-12.5647
▁pope	-12.5648
eat	-12.565
▁prehistor	-12.565
▁diverse	-12.5654
▁gaining	-12.5663
witches	-12.5665
▁grooves	-12.5666
▁sweats	-12.5666
▁finishing	-12.5668
▁stoned	-12.567
▁lye	-12.5671
rumbled	-12.5673
▁decks	-12.5675
▁mus	-12.5675
▁boarding	-12.5678
▁furs	-12.5679
▁elevators	-12.5686
▁divinit	-12.5687
▁tuna	-12.5691
▁dedicat	-12.5692
hidden	-12.5692
▁intentions	-12.5692
▁unstead	-12.5693
▁pilots	-12.5696
hed	-12.57
current	-12.5701
urs	-12.5701
▁musty	-12.5704
ec	-12.5704
▁staggers	-12.5707
▁extinguish	-12.5711
▁bach	-12.5711
▁gram	-12.5713
▁dio	-12.5729
mic	-12.5735
hel	-12.574
▁treetop	-12.5742
eys	-12.5743
▁hugs	-12.5744
mate	-12.5748
▁hemp	-12.5749
angling	-12.5753
▁upland	-12.5759
used	-12.5759
▁cult	-12.5759
▁moles	-12.5765
▁wronged	-12.5771
▁professors	-12.5773
▁donna	-12.5774
▁notions	-12.5776
▁hol	-12.5777
▁pats	-12.5782
▁clo	-12.5784
sex	-12.5784
▁mer	-12.5797
▁vs	-12.5806
canned	-12.5807
eared	-12.5809
▁ooh	-12.5813
▁natives	-12.5814
▁flexibl	-12.5814
▁err	-12.5817
stars	-12.5827
▁capt	-12.583
▁baths	-12.5831
▁moo	-12.5832
dium	-12.5838
tra	-12.5841
▁wipes	-12.585
roaches	-12.5854
▁bomber	-12.5856
ison	-12.5858
▁smelt	-12.5859
▁vol	-12.586
▁engage	-12.5861
▁tuft	-12.5865
▁excit	-12.5866
▁lov	-12.5869
discovered	-12.5871
mount	-12.5872
▁sips	-12.5873
▁contracts	-12.5873
▁flop	-12.5878
scape	-12.5878
bin	-12.588
▁undulat	-12.5881
▁cleans	-12.5889
▁ember	-12.5889
▁empires	-12.589
petal	-12.5891
▁revers	-12.5892
▁pets	-12.5894
dum	-12.5896
▁veri	-12.5897
small	-12.5899
▁faggot	-12.5901
▁turnip	-12.5901
▁uncontrollabl	-12.5902
▁reservoir	-12.5908
miss	-12.5908
condition	-12.591
▁typewriter	-12.5911
dream	-12.5912
▁withstand	-12.5919
▁outcome	-12.5926
bill	-12.5928
▁portal	-12.5931
lip	-12.5937
▁gangs	-12.5941
▁rove	-12.5942
ini	-12.5943
nate	-12.5945
cu	-12.5946
▁steamer	-12.5947
▁imitat	-12.595
▁tusk	-12.5952
▁election	-12.5953
▁slot	-12.5954
lashing	-12.5954
▁relent	-12.5956
wait	-12.5958
type	-12.5959
▁outdoor	-12.5959
▁rods	-12.5959
blossom	-12.5961
listen	-12.5961
cum	-12.5965
▁jacob	-12.5967
▁supermarket	-12.5972
▁anticipate	-12.5973
▁despairing	-12.5975
been	-12.5981
▁banker	-12.5982
▁reside	-12.5982
▁uncount	-12.5983
▁rec	-12.599
bourg	-12.5992
sides	-12.5995
▁confront	-12.5996
▁accomplish	-12.5996
▁erupt	-12.5997
▁espa	-12.5997
says	-12.5997
▁cupp	-12.6
▁blanks	-12.6
oming	-12.6001
alms	-12.6002
remember	-12.6004
▁liam	-12.6006
visible	-12.6007
▁jenn	-12.6008
woo	-12.6009
reach	-12.601
▁unmark	-12.601
▁teas	-12.601
▁viscera	-12.601
▁mourns	-12.6015
▁dour	-12.6017
grain	-12.6018
▁convenience	-12.6019
▁attire	-12.602
▁stages	-12.6021
▁mote	-12.6022
▁slurp	-12.6023
▁scuttle	-12.6025
▁freckle	-12.6027
▁victoria	-12.6027
front	-12.6028
▁ratio	-12.603
▁johns	-12.603
▁cemeter	-12.6031
▁foresee	-12.6035
▁wins	-12.6036
▁babel	-12.6036
▁tonic	-12.6039
▁mirrored	-12.604
▁precipit	-12.6042
▁syria	-12.6043
▁brenda	-12.6044
▁dose	-12.6046
▁auction	-12.6048
▁applaud	-12.6048
▁luscious	-12.6048
▁revolt	-12.6048
▁attentive	-12.6048
▁barbecue	-12.6048
▁baudelaire	-12.6048
▁bougainvillea	-12.6048
▁brethren	-12.6048
▁complement	-12.6048
▁constancy	-12.6048
▁disconsolat	-12.6048
▁heretofore	-12.6048
▁lebanon	-12.6048
▁maneuver	-12.6048
▁manuscript	-12.6048
▁millennium	-12.6048
▁monastery	-12.6048
▁sappho	-12.6048
▁smoulder	-12.6048
▁tangerine	-12.6048
▁translating	-12.6048
▁vagrant	-12.6048
▁accompany	-12.6048
▁deluge	-12.6048
▁gruel	-12.6048
▁injustice	-12.6048
▁oregon	-12.6048
▁rickety	-12.6048
▁bequeath	-12.6048
▁moscow	-12.6048
▁turban	-12.6048
▁jehovah	-12.6048
▁kelp	-12.6048
▁microscope	-12.6048
▁tributar	-12.6048
▁burlap	-12.6048
▁memoir	-12.6048
▁epoch	-12.6048
▁albeit	-12.6048
▁cartilag	-12.6048
▁frankenstein	-12.6048
▁confusing	-12.6048
▁swiss	-12.6048
▁jargon	-12.6048
▁meditate	-12.6048
▁stunning	-12.6048
▁communication	-12.6048
▁calico	-12.6048
▁adobe	-12.6048
▁undisturb	-12.6048
▁vocal	-12.6048
▁dutiful	-12.6048
▁subterranea	-12.6048
▁collage	-12.6048
▁hummed	-12.6048
▁jeff	-12.6049
▁nuance	-12.6049
du	-12.6049
▁transitory	-12.6049
▁fount	-12.6049
▁trophy	-12.6049
▁cyclone	-12.6049
▁senate	-12.6049
▁carrion	-12.6049
▁stevens	-12.6049
▁mesquite	-12.6049
▁cymbal	-12.6049
▁gyre	-12.6049
▁dairy	-12.6049
▁resemblance	-12.6049
▁adoration	-12.6049
▁cobra	-12.6049
▁plateau	-12.6049
▁thunderstorm	-12.6049
▁rebellion	-12.6049
▁lustrous	-12.6049
sylvania	-12.6049
▁corps	-12.6049
▁assignment	-12.6049
▁brutus	-12.6049
▁circulation	-12.605
▁kevin	-12.605
▁resentment	-12.605
▁melissa	-12.605
▁saturn	-12.605
▁janus	-12.605
las	-12.605
▁fetal	-12.605
▁anarchy	-12.605
▁tinny	-12.605
▁legacy	-12.605
▁garret	-12.605
▁accomplishment	-12.605
▁posterity	-12.605
▁clich	-12.6051
barb	-12.6051
▁accurs	-12.6051
▁parachute	-12.6051
▁trend	-12.6051
▁shaman	-12.6051
▁campfire	-12.6051
▁vertebrae	-12.6051
▁reversal	-12.6051
▁kitty	-12.6051
▁outrage	-12.6051
▁suicidal	-12.6052
▁volley	-12.6052
▁unfair	-12.6053
▁pistil	-12.6053
▁troubling	-12.6054
▁keyhole	-12.6054
[...]
